<unk>
<s>
</s>
,
.
the
in
of
and
die
der
to
und
a
is
that
zu
for
den
von
ist
on
für
an
mit
with
(
das
The
)
be
are
auf
des
as
I
-
eine
this
Sie
im
:
it
es
nicht
werden
&quot;
we
ein
by
have
dass
dem
sich
not
Die
you
wir
will
auch
which
or
at
from
was
sind
wird
has
als
um
In
s
ich
can
oder
all
our
also
haben
über
European
-@@
so
einer
/
hat
!
?
sie
&apos;
wie
einen
er
zur
Das
aus
bei
Union
your
&apos;s
its
Ich
können
–
We
but
am
one
would
more
einem
’
their
been
nach
This
zum
It
Wir
diese
uns
nur
un@@
durch
should
kann
Mr
Der
de
;
dieser
do
very
Commission
must
...
Es
vor
er@@
us
daß
they
Kommission
there
noch
new
“
wurde
other
time
ver@@
only
like
EU
an@@
aber
about
re@@
Hotel
Herr
man
wenn
S@@
sehr
sein
müssen
President
t
these
in@@
i
up
who
e
war
o
en
B@@
no
ten
diesem
k@@
te
en@@
if
P@@
ge@@
alle
A
s@@
out
mehr
%
any
Europäischen
Europe
into
T@@
were
A@@
people
t@@
2
Parliament
bis
möchte
G@@
K@@
such
eines
ab@@
what
D@@
1
use
States
d@@
C@@
than
H@@
countries
report
be@@
my
Member
vom
need
ihre
when
his
some
most
Präsident
well
gibt
M@@
p@@
e@@
F@@
now
hotel
first
unter
sowie
work
dieses
E@@
b@@
make
them
Council
many
f@@
L@@
important
N@@
m
between
y
ing
o@@
way
n@@
hier
g@@
m@@
system
z@@
take
because
zwischen
able
da
ein@@
muss
c@@
3
An@@
W@@
Bericht
keine
„
unsere
he
al@@
Ver@@
made
information
Ihnen
ch@@
Parlament
years
R@@
just
If
had
support
anderen
two
&#91;
over
y@@
&#93;
world
those
d
Mitgliedstaaten
where
u@@
Wenn
Europa
immer
”
O@@
dies
li@@
policy
dann
i@@
me
being
de@@
v@@
ed
aus@@
Im
st@@
sch@@
V@@
ter
di@@
may
diesen
gegen
end
a@@
damit
even
wurden
Ab@@
Diese
good
see
5
al
right
Frau
year
order
ers
4
Zeit
area
l@@
ent@@
Ihre
unserer
gen
here
habe
ti@@
ung
part
place
ar@@
You
seine
same
market
jedoch
h@@
sondern
k
le
after
l
Europäische
through
el@@
ts
possible
neue
As
10
ation
political
j@@
own
I@@
&amp;
Menschen
heute
There
could
used
Jahr
then
economic
For
development
want
si@@
.@@
ri@@
Sch@@
within
J@@
Be@@
bereits
or@@
r@@
ro@@
rights
ate
how
Z@@
auf@@
both
Ein@@
finden
against
find
mich
sollte
europäischen
much
international
therefore
Jahren
ihrer
neuen
denen
ge
zu@@
ohne
under
does
andere
le@@
vor@@
country
on@@
point
room
es@@
public
g
at@@
Rat
um@@
zwei
without
sollten
Entwicklung
free
Frage
service
last
services
number
great
machen
Re@@
allen
ganz
ra@@
still
bietet
available
w@@
geht
n
Mit
different
liegt
fact
say
Aus@@
view
social
u
viele
Ein
In@@
ungs@@
ungen
set
la
course
Welt
already
Unternehmen
6
se
before
future
believe
dazu
too
get
That
U@@
el
know
weil
today
jetzt
wieder
products
p
sten
3@@
über@@
30
20
But
denn
seiner
per
te@@
cannot
case
c
Er@@
think
Informationen
Lage
2009
th@@
city
darauf
dis@@
process
her
go
Bereich
data
am@@
offers
level
einige
day
ar
em@@
Maßnahmen
schon
dafür
selbst
tes
ern
human
So
rooms
Commissioner
quality
situation
during
geben
financial
Vor@@
ihren
Jahre
ihr
b
best
ated
national
Herrn
x
high
bin
sagen
issue
Eine
Al@@
Dies
said
example
mir
Arbeit
viel
debate
st
et
lo@@
allem
means
every
ob
small
ab
7
question
würde
ch
Our
gut
including
meine
sp@@
proposal
ale
since
However
et@@
help
stehen
All
wollen
enden
ens
z
business
Land
unseren
each
e-@@
ische
Für
op@@
form
stellen
access
offer
long
problem
Und
ins
China
ste
kommen
bar
la@@
is@@
it@@
Zimmer
etwas
clear
während
position
8
con@@
wo
particular
ad@@
Länder
nun
Wie
ischen
se@@
lassen
h
waren
möglich
areas
doch
give
next
few
ter@@
measures
15
common
S
provide
agreement
liche
Committee
4@@
Un@@
x@@
co@@
based
put
St@@
im@@
seit
energy
2@@
taken
On
citizens
2010
large
insbesondere
ent
�
ensure
back
steht
again
systems
sehen
ger
erhalten
three
come
Unterstützung
ersten
vi@@
&#124;
Rahmen
further
Art
problems
security
company
change
Ländern
far
f
r
der@@
Internet
Zusammenarbeit
politischen
while
2008
Parlaments
ber@@
Teil
using
ur@@
necessary
du
50
ma@@
beim
why
given
located
however
shall
Con@@
ende
stay
besteht
us@@
To
T
Fall
ting
Y@@
vote
soll
life
Vorschlag
With
ert
ta@@
eren
They
cooperation
tun
einfach
group
needs
lich
Bei
always
real
down
At
Stadt
Group
X@@
And
os
seinen
C
ke
ating
lichen
law
Fragen
wichtig
gen@@
ap@@
ja
deren
Problem
drei
einmal
hope
wäre
USA
as@@
United
Ziel
letzten
ag@@
Namen
main
dabei
action
less
km
better
unter@@
Bürger
12
sk@@
What
around
EU-@@
men
House
Kollegen
5@@
ler
ck@@
große
ac@@
qu@@
ted
power
working
großen
did
worden
protection
bringen
land
po@@
ly
Daten
Mar@@
System
Was
ten@@
Recht
Auf
Verfügung
D
production
weiter
Er
programme
Ihr
ger@@
current
zi@@
welche
special
full
Seite
Bedeutung
These
Community
become
au@@
ant
legal
Aber
US
Sicherheit
Auch
When
centre
ic
to@@
terms
present
ations
together
Möglichkeit
whether
trade
particularly
open
bi@@
wissen
another
sh@@
chen
E
18@@
ol@@
page
gehen
eigenen
9
-S@@
children
em
Nach
bieten
management
old
result
basis
Regierung
Als
*
ei@@
100
ul@@
Mrs
muß
Ar@@
que
region
site
gi@@
conditions
2007
Thema
é@@
issues
les
davon
könnte
alles
pro@@
daher
Probleme
aller
state
companies
om@@
kein
ine
stellt
pre@@
ne
ings
darüber
experience
line
weitere
ak@@
ser@@
Kunden
Staaten
befindet
certain
führen
Weise
control
sen
close
Kommissar
6@@
ne@@
water
sowohl
B
Politik
second
women
O
Ihrer
role
ates
various
erreichen
2000
especially
her@@
location
industry
whole
modern
German
mo@@
sector
besonders
really
Euro
Ende
Ro@@
hatte
ie
ges
matter
government
done
meiner
making
Zukunft
health
7@@
look
local
private
wirklich
ous
account
Service
unterstützen
unser
25
Beispiel
+
ihnen
Mo@@
tra@@
budget
natürlich
create
entfernt
innerhalb
name
verschiedenen
schen
age
specific
global
inter@@
Ge@@
vielen
staff
ere
Germany
respect
gegenüber
ci@@
erte
sen@@
research
days
ds
going
che
Rolle
Richtlinie
major
den@@
di
hand
19@@
software
Weg
ze
internationalen
million
möchten
kommt
2006
bo@@
_
tions
00
list
zwar
fully
ä@@
something
ken
Ihren
project
several
8@@
Bo@@
away
itself
politische
continue
Frauen
start
Co@@
no@@
direkt
da@@
est
rapporteur
resolution
dort
t-@@
ve
crisis
europäische
Hotels
Tag
hi@@
P
often
000
ask
Seiten
excellent
so@@
erste
range
man@@
Auf@@
ding
EUR
regard
wish
ans
gentlemen
ing@@
Ma@@
Alle
Hier
least
New
mi@@
general
Um
single
transport
Pro@@
He
off
me@@
following
stand
per@@
rules
price
9@@
ex@@
isch
welcome
third
food
growth
personal
money
Le@@
directive
red
Programm
little
once
Artikel
environment
Meinung
found
side
tri@@
arbeiten
online
ts@@
a-@@
field
est@@
subject
Uhr
ko@@
towards
par@@
De@@
beiden
Lösung
until
product
things
institutions
11
customers
Situation
Über@@
unserem
nehmen
gesagt
En@@
pro
World
fast
ir@@
Madam
No
ut@@
wei@@
Region
ha@@
Fraktion
Zu@@
Dieses
F
Zusammenhang
increase
Di@@
individual
him
res
town
weniger
version
thank
standards
family
opportunity
erten
ob@@
design
Hilfe
ber
Produkte
fen
®
Treaty
Ex@@
los
del
building
40
rather
&apos;t
positive
y-@@
let
quite
activities
su@@
home
Präsidentin
M
technology
Mittel
elle
call
Arbeits@@
approach
Par@@
re
Sp@@
jeder
interest
2005
provided
Leben
bitte
th
gilt
resources
Deshalb
value
ster
daran
L
un
nen
light
Haus
rate
aid
forward
yet
economy
fi@@
via
do@@
wi@@
sogar
etwa
schaffen
bzw.
Software
period
ce
ens@@
An
solution
Grund
Members
agree
members
September
might
R
include
key
zen
Millionen
ot@@
having
Th@@
macht
Se@@
Um@@
X
ou@@
hinaus
taking
dessen
halten
gemacht
ors
Europas
alen
indem
decision
times
International
among
ladies
art
minutes
Schutz
After
State
d-@@
points
costs
ur
due
proposals
ally
allow
play
ö@@
nämlich
One
gt
amendments
len
text
sti@@
Unsere
sche
Dieser
content
gra@@
Deutschland
framework
safety
2004
ho@@
24
Kinder
ebenfalls
w
erung
ung@@
18
words
Unter@@
reason
14
fer@@
ihn
makes
il@@
einigen
ü@@
ator
enjoy
progress
called
website
0@@
adopted
TV
ben
show
seinem
.com
v
brauchen
ons
ati@@
all@@
ses
gute
ene
ec@@
sicher
Mon@@
&apos;@@
unterstützt
mit@@
provides
left
effective
difficult
station
Kon@@
ihm
air
others
ischer
darf
Rates
Website
politik
projects
easy
Punkt
legislation
Aussprache
Personen
ach@@
views
opinion
é
darin
Form
ka
16
results
favour
mon@@
above
application
gu@@
Qualität
known
contact
ra
for@@
responsibility
öffentlichen
du@@
Finanz@@
groups
attention
policies
Berlin
ali@@
simply
pi@@
Restaurant
addition
beautiful
non-@@
concerned
gerade
dürfen
tu@@
questions
short
Da
meisten
glaube
behalf
led
nationalen
je
over@@
ideal
2003
Bar@@
genau
Po@@
Wirtschaft
ves
jeden
nichts
Abstimmung
ß@@
mer@@
pe@@
importance
ni@@
Li@@
keinen
G
Ch@@
car@@
house
sollen
com@@
ihrem
society
and@@
ru@@
complete
gh@@
recht
strategy
Gemeinschaft
Haupt@@
she
setzen
cultural
ker
Lo@@
ment
greater
end@@
Rechte
handelt
ia
bu@@
weiterhin
hin@@
ep@@
sea
zusammen
sa@@
Grund@@
klar
zurück@@
training
environmental
kind
Ebene
betrifft
nach@@
Inter@@
Ort
ange@@
he@@
sei
statt
natural
along
ago
13
ig@@
weit
required
á@@
wer@@
La
principle
heart
step
bedeutet
Ad@@
findet
pages
wichtige
recent
sure
durch@@
EN
Bezug
ellen
€
würden
eb@@
breakfast
kon@@
bereich
nutzen
besten
solche
Rechts@@
under@@
meeting
Or@@
min@@
besser
deal
century
fall
führt
deshalb
schnell
Gesellschaft
wide
Her@@
war@@
ma
deutlich
clearly
address
K
ic@@
authorities
tion
2001
November
technical
Zugang
ability
aufgrund
gel@@
user
tern
men@@
ches
Dank
go@@
Von
gehört
Kosten
sub@@
achieve
solutions
erst
Russia
Richtung
ca
alten
nächsten
enough
plan
directly
past
up@@
10@@
ed@@
employment
hin
needed
pool
facilities
essential
lot
standard
bekannt
ty
serious
ran@@
car
IT
Markt
months
thing
feel
ise
nature
person
bring
developed
allerdings
av@@
history
Nähe
related
guests
Ansicht
60
risk
currently
Please
responsible
Aus
ging
restaurant
proposed
Umsetzung
longer
1@@
markets
Ent@@
events
eln
ft
ary
Menschenrechte
vo@@
April
central
visit
requirements
lange
live
ded
tre@@
interests
hei@@
bel@@
Lu@@
tige
N
ters
ms
Rück@@
comes
cht
parties
bar@@
From
near
Windows
internal
voll
works
comfortable
licher
Ziele
$
language
ina
beispielsweise
top
son
Bau@@
Vertrag
hoffe
night
please
eller
themselves
Verfahren
Verantwortung
Version
Car@@
gestellt
2002
ets
team
werde
regions
ff@@
young
Bedingungen
Gu@@
involved
efforts
Am
0
extremely
democracy
voted
‘
ell@@
mar@@
ver
changes
competition
Durch
total
GmbH
regulation
notwendig
ta
verwendet
Anwendung
strong
never
implementation
friendly
vielleicht
Interesse
sch
cases
Demokratie
keep
ell
kleinen
gemeinsamen
Ihrem
Vorschläge
ck
V
Haushalts@@
ziehen
held
force
four
Neu@@
Grundlage
Man
network
Reihe
Geschichte
gung
Daher
AN@@
freedom
Gra@@
peace
gesch@@
Herren
Gebiet
upon
17@@
20@@
Möglichkeiten
event
bleiben
erreicht
though
Tra@@
ad
Doch
wirtschaftlichen
situated
etc
democratic
pa@@
sprechen
France
file
regional
sozialen
prices
gegeben
ren@@
zeigt
..
care
either
könnten
negotiations
material
rates
ausge@@
space
Sicherheits@@
developing
Debatte
bed
Institutionen
created
ure
wenig
AG
Man@@
consider
liches
unique
true
education
dar
oft
looking
pay
17
music
eh@@
seen
everything
80
Tri@@
share
almost
states
500
Ri@@
Bi@@
big
request
tischen
thus
beach
tigen
tion@@
ling
verschiedene
vier
mu@@
funds
1.@@
Pi@@
Strategie
reform
success
improve
early
book
ner
spielen
är@@
verfügt
Bank
designed
ie@@
additional
Dis@@
parts
liegen
meet
ster@@
fundamental
climate
sion
road
ari@@
try
cost
à
dern
date
ative
foreign
according
effect
Auswirkungen
form@@
200
famous
ermöglicht
bei@@
ern@@
Damen
type
American
soon
Minuten
lu@@
besch@@
lei@@
tive
links
hard
card
s-@@
term
Dienstleistungen
mal
gemeinsame
weltweit
included
Qu@@
actually
send
Wirtschafts@@
unternehmen
helfen
Berichterstatter
idea
enen
Abkommen
hatten
gs
danken
receive
later
www.@@
French
lin@@
Park
Israel
Presidency
Su@@
act
test
understand
aten
ah@@
tragen
ER
living
tung
pl@@
bus
ven@@
lead
ER@@
Zu
turn
sc@@
accept
erforderlich
Paris
capital
tan@@
direct
program
tic
1999
Verhandlungen
Hinblick
takes
wegen
Mitglieder
Programme
appropriate
low
center
Wasser@@
outside
geb@@
workers
fe
mentioned
Tatsache
gesamten
mis@@
Regionen
users
bereit
Ber@@
tax
Geschäfts@@
investment
San
»
ass@@
features
ebenso
ways
mer
lan@@
cher
Ko@@
entwickelt
Zentrum
Außerdem
einzelnen
Gruppe
fragen
How
reach
ori@@
tet
IN@@
amount
table
Cor@@
run
procedure
Liste
leben
Schritt
hours
denke
wa@@
Nach@@
weiteren
doing
internationale
week
majority
ance
Y
gebracht
va
took
darum
Kolleginnen
í@@
16@@
ders
ard
ever
communication
chten
Ergebnis
Entscheidung
throughout
gleichen
By
ieren
lässt
active
hätte
AR@@
across
guarantee
jedem
konnte
Bereichen
significant
certainly
wor@@
traditional
Ho@@
ationen
EN@@
connection
ph@@
final
Änderungsanträge
legen
aware
Vereinigten
existing
Antwort
Platz
…
writing
-B@@
befinden
gel
perfect
19
Krise
Blick
sed
ing-@@
America
kt
Änderungsantrag
Erfolg
Turkey
Beziehungen
relations
Ta@@
board
Com@@
media
Bevölkerung
context
performance
concerns
gab
Sa@@
leading
gleichzeitig
geführt
gn@@
15@@
member
AT@@
br@@
original
stage
fahren
initiative
wichtigen
gemeinsam
customer
IS@@
ments
z.B.
Preis
weiß
knowledge
cu@@
My
zeigen
military
jede
cks
impact
ente
walk
Seit
add
body
So@@
ges@@
population
programmes
Bar
Rei@@
five
built
moment
wohl
game
&gt;
bekommen
ST@@
kleine
apply
Ausdruck
heißt
Per@@
Unser
professional
although
Abgeordneten
Geld
Pre@@
bleibt
rec@@
Ne@@
ben@@
Bu@@
Aufgabe
ents
Japan
21
2.@@
completely
tische
Verbindung
Türkei
tor
au
nothing
gern
Mit@@
established
Minister
reasons
ties
committee
=
code
includes
fo@@
bare
community
Zum
verbunden
zeit
Government
decisions
read
equipped
allows
Einsatz
Mal
remain
fe@@
concerning
ys
agreements
Mor@@
Since
basic
stra@@
Kontrolle
ender
meinen
AS@@
ast@@
style
baren
culture
Förderung
lichkeit
kl@@
Q@@
unseres
English
70
enthalten
London
iert
practice
gestimmt
choice
enn@@
jobs
Projekt
sense
eu@@
front
und@@
ana
Kar@@
Verordnung
partners
ry
Court
fer
tz@@
model
neu
out@@
Forschung
internet
des@@
party
Vi@@
Ru@@
tr@@
kan@@
Jahres
web
ats
holiday
For@@
22
files
values
Do@@
demand
Damit
Lösungen
received
IC@@
hand@@
simple
Wei@@
auszu@@
einge@@
develop
ity
ba@@
Information
package
applications
jedes
ums
face
integration
W
Let
il
Partner
els
equipment
stop
fest@@
potential
Erweiterung
August
objectives
ones
entire
Behörden
Bitte
II
ales
richtig
wichtigsten
Entschließung
regarding
move
gerne
don
cor@@
dar@@
ES
Iran
o-@@
Beitrag
function
Lisbon
below
quickly
IT@@
park
benefit
bit
Nutzung
rund
mehrere
gleich
Here
focus
fight
nice
aim
det
agricultural
12@@
concern
eg@@
Ausschuss
fin@@
East
successful
90
pp@@
fest
reports
hinsichtlich
image
zurück
er-@@
mp@@
objective
ganze
derzeit
cken
enthält
eigene
Russland
treatment
ven
check
ganzen
co
goods
euro
seems
South
ermöglichen
27
contains
return
einzu@@
AL@@
lose
kte
genommen
May
No@@
Landes
neben
Verbesserung
recently
wobei
governments
achieved
Vor
press
dy
Finally
hotels
ann@@
Au@@
ces
al-@@
tig
indeed
size
ks
Ausschusses
en-@@
levels
Text
Umwelt@@
mind
{
series
versch@@
«
guest
mean
coming
Ergebnisse
June
Verbraucher
mat@@
Du@@
beginning
fair
National
prevent
rest
huge
Angebot
än@@
weise
added
Central
gar
str@@
isches
job
ste@@
increased
hal@@
computer
ES@@
tungs@@
keyword
places
Gelegenheit
clean
Woche
völlig
Wort
lack
everyone
verfahren
id
ban@@
Design
answer
Schaffung
presented
verbessern
zusammen@@
Me@@
re-@@
RE@@
23
sites
Darüber
Verwendung
dialogue
anderer
enter
14@@
mm
Initiative
office
wirtschaftliche
Land@@
closed
cht@@
Some
floor
reviews
fördern
ier@@
consumers
note
Regierungen
Mitarbeiter
eri@@
lang
agreed
guten
entwickeln
shows
berg
großer
verwenden
ss@@
relevant
highly
higher
asked
anzu@@
Affairs
verfügen
Mi@@
balance
ship
E-@@
lage
PC
tur@@
land@@
direction
gehören
choose
sustainable
Ukraine
ub@@
dr@@
carried
ving
sis
enable
complex
ang
ändern
lines
soziale
Interessen
La@@
nuclear
Team
fünf
chte
bestehen
half
später
Bild
rich
falls
sing
Familie
whose
Notwendigkeit
amendment
gas
commitment
res@@
Welt@@
Wert
ps
considered
effects
Now
Therefore
nimmt
principles
sorgen
Zeitpunkt
suchen
Themen
shown
Server
Änderungen
inc@@
innovative
comp@@
travel
perhaps
Spiel@@
300
Frankreich
maßnahmen
ore
nie
13@@
meinem
zunächst
City
server
eng@@
col@@
latest
EL@@
Markt@@
Management
tatsächlich
materials
Barcelona
pres@@
scher
Tage
possibility
Erfahrung
H
Web@@
Hand@@
dra@@
setting
Of
matters
Organisation
Während
programm
ant@@
har@@
ano
EC@@
Gesundheit
ton
Kultur
tete
Auswahl
former
Nor@@
thanks
Person
fre@@
forms
sta@@
treffen
tiger
}
ro
Herzen
details
UN@@
enz@@
angenommen
He@@
ist@@
tieren
Umgebung
Dabei
opportunities
easily
ess
came
behind
Mai
video
ski
Anfang
previous
First
double
popular
net
Spain
accommodation
sto@@
weiter@@
increasing
status
actions
pressure
Fahr@@
Fach@@
fallen
reduce
schriftlich
0.@@
promote
AC@@
speak
aspects
stark
response
verstehen
ations@@
lediglich
atmosphere
search
hohen
reached
ak
anti@@
ser
bisher
ying
tim@@
partner
pf@@
prepared
ort
providing
tel@@
capacity
remains
—
Mitglied
ino
äußerst
Einführung
innen
Steuer@@
creation
Africa
joint
Kampf
Juni
gesamte
genden
safe
Article
Ba@@
ism
1.
sound
Anzahl
exchange
Meer
ies
ssen
Aktivitäten
billion
external
efficient
oil
submitted
je@@
Bel@@
produced
somit
wer
Umwelt
British
Am@@
Italy
Bei@@
bringt
Also
bank
Museum
the@@
commercial
limited
charge
bestimmte
tiert
Wachstum
Sprache
por@@
Wahl
summer
sts
gemäß
gewährleisten
tliche
industrial
Gäste
link
ation@@
supply
gten
ese
Prozess
gives
00@@
uses
Systems
versuchen
ful
met@@
lies
protect
Wasser
obwohl
Integration
decided
ve@@
stre@@
gesetzt
kten
funding
supported
voll@@
mann
ll@@
Produktion
emp@@
scheint
US-@@
priority
December
fordern
sur@@
P-@@
halte
cause
Hand
leave
Amsterdam
Lei@@
Convention
Hoch@@
follow
fu@@
bestimmten
property
Por@@
gre@@
Lebens@@
Raum
island
Zahl
Daten@@
Dinge
Preise
restaurants
Western
enlargement
independent
can@@
Kur@@
Kommissarin
stri@@
El@@
ler@@
Bekämpfung
ess@@
zahlreiche
Go@@
Fortschritte
tungen
we@@
Te@@
produce
enten
ther@@
civil
Insel
ade
gro@@
largest
Euro@@
pri@@
zweite
Natur
bad
35
organisation
To@@
similar
Industrie
CO@@
Erachtens
word
option
hohe
S-@@
systeme
consumer
leicht
structure
ence
erster
assistance
ili@@
ators
ausgestattet
bre@@
meines
gl@@
möglichkeiten
Jo@@
Funktion
instrument
zer@@
mobile
York
größten
einschließlich
heit
Spiel
hr@@
bau@@
aufge@@
Entwicklungs@@
steps
Gen@@
1998
creating
movement
comm@@
iz@@
Services
frei
lau@@
sel@@
außerdem
teile
apartment
ines
setzt
Bestimmungen
Erklärung
solchen
Einzel@@
platz
Position
pleased
Jahrhundert
March
our@@
January
lagen
Dezember
Web
Stelle
weisen
insgesamt
UN
variety
brought
rule
sive
dadurch
regulations
sagte
führung
construction
Ha@@
Sozial@@
General
airport
fl@@
j
source
len@@
einzige
credit
hoch@@
weder
Handel
Gar@@
Pa@@
mel@@
vergangenen
War@@
bri@@
mein
St.
af@@
conference
purpose
Pal@@
ok@@
October
Dialog
ourselves
tem
zweiten
written
Today
ktion
message
Nur
,000
activity
stability
van
Booking.com
Mehrheit
sm@@
ble
started
aufgenommen
verb@@
discussion
ground
became
Gi@@
instruments
instead
ó@@
kt@@
leider
zei@@
Gewalt
distance
Linux
Anforderungen
are@@
Entscheidungen
paid
kosten
Investitionen
Sal@@
film
Küche
Stunden
relation
Strand
distribution
study
Punkte
sieht
interesting
ären
Vorschriften
click
Kosovo
23@@
aler
genießen
section
mittel
ca.
Aufmerksamkeit
ß
allowed
geschlossen
März
Gefahr
sent
ev@@
document
Gästebewertungen
4.@@
Party
fishing
leisten
aufzu@@
giving
une
West@@
Energie
Projekte
ju@@
U
sei@@
tool
vol@@
agenda
Grenzen
Mal@@
ite
kre@@
Ste@@
Republic
bezüglich
pass
tell
legislative
statement
Macht
regards
Club
quiet
compromise
gar@@
bevor
с@@
payment
benefits
schließlich
Bereiche
base
concept
effort
lung
ness
Center
Development
procedures
Handels@@
During
werk
Villa
growing
konnten
DE
North
school
Freiheit
tors
violence
eingesetzt
damage
neuer
aktuellen
village
Folgen
gelten
weg
ou
wenige
bes@@
Many
contribution
Italian
historical
July
stell@@
operation
Chi@@
eigentlich
extra
self-@@
größte
require
log@@
CD
Wettbewerb
Regeln
item
Ni@@
drive
OS
fra@@
operating
Spanish
26
Landwirtschaft
zed
documents
Anfrage
wichtiger
abzu@@
digital
Frühstück
benötigen
integrated
gende
sports
provisions
Beschäftigung
tools
gleich@@
schaft
met
enti@@
Rights
download
durchgeführt
Meine
Firma
Bad
treten
lic@@
task
types
Reform
Oktober
zehn
build
28
teilen
criteria
kannst
Portugal
class
dung
Linie
Zur
happy
Standpunkt
box
Präsidenten
Bildung
Br@@
Höhe
europäischer
changed
Business
forces
Du
45
Diskussion
erwarten
1,@@
ll
wählen
mal@@
immediately
Januar
alternative
Nationen
Site
got
express
nor
assi@@
University
ris@@
Although
Ti@@
sions
Groß@@
star@@
genannten
ill@@
Sk@@
six
challenges
allein
ality
kurz
goes
official
zone
Heute
hinter
highest
Musik
draft
elements
apartments
fa@@
getan
equal
era
late
Your
IS
yer
chen@@
erungs@@
Gemeinschafts@@
eher
ihres
gr@@
Centre
San@@
employees
West
parking
tro@@
Berichts
Si@@
na
angesichts
sofort
app@@
transparency
bau
helpful
avoid
Furthermore
ik
round
Gründen
Ju@@
sor@@
Fehler
Flug@@
Op@@
Transparenz
friends
Wel@@
rise
Sache
reading
train
Sinne
öffentliche
bra@@
Personal
Ger@@
analysis
erneut
yp@@
daily
alte
Bemühungen
nahe
zwei@@
lower
processes
tel
applied
Öffentlichkeit
begrüße
Ser@@
offering
Ansatz
pr@@
numerous
bl@@
tsch@@
1997
reality
finally
consequences
ga
elections
Luft@@
bathroom
bel
az@@
Schlusselwortern
Präsidentschaft
Auffassung
Ben@@
Ra@@
eben
Gr@@
trans@@
historic
RO@@
geworden
review
ör@@
poverty
requires
Besch@@
Bilder
Flughafen
za
gefunden
B.
speed
5.@@
Wi@@
talk
conflict
MP@@
See
beitragen
stellung
Kraft
tt@@
vel@@
king
efficiency
labour
sting
lives
beyond
star
morgen
offered
lernen
ismus
AD@@
Urlaub
solidarity
hält
Kinder@@
son@@
ya
sport
entsprechenden
diejenigen
Restaurants
modified
colleagues
Verkehrs@@
sum@@
Fällen
death
Ober@@
saying
Room
tlich
freien
persons
verhindern
expect
@
ini
Do
bur@@
medi@@
Juli
Dateien
ini@@
volle
wine
Bal@@
poor
gender
behandelt
ideas
tlichen
Druck
paar
pu@@
Natürlich
Monaten
Kor@@
fine
fol@@
implemented
wanted
minimum
Tor@@
useful
Tur@@
sted
bs
practical
published
ständig
draw
hätten
Even
clients
con
phone
Mediterranean
cs
shopping
erfolgt
ron@@
ßen
vers@@
stimmen
dan@@
terrorism
establish
geh@@
congratulate
illegal
sektor
entsprechend
Tre@@
starting
Tagen
crucial
fil@@
Atmosphäre
learn
Debian
Bürgern
stands
tomorrow
news
WTO
carry
Basis
kennen
secure
berücksichtigt
weeks
sales
richtige
ment@@
Behandlung
technologies
Hotel@@
­
Tagesordnung
OR@@
comprehensive
Fi@@
edi@@
vergessen
Har@@
sal@@
tik@@
Gesundheits@@
wieder@@
Austria
ce@@
transfer
Tat
mm@@
player
Sport@@
Energie@@
ide@@
lesen
Staats@@
While
cal
warum
Nr.
Den
Dar@@
anderem
Vo@@
besondere
organisations
rä@@
Preis@@
hoch
technischen
Mittel@@
prä@@
Selbst@@
minute
Min@@
reduction
options
acc@@
modernen
ably
monitoring
folgen
sometimes
port
maximum
ement
versucht
machine
LE@@
frage
Microsoft
deutschen
A-@@
pan@@
lin
head
ke@@
3.@@
Bürgerinnen
win@@
Bundes@@
oben
amp@@
Unter
vertreten
reference
leaders
morning
zahlen
hold
ff
Änderung
denken
plant
Bri@@
Italien
Stadt@@
probably
überhaupt
worldwide
voting
inn@@
players
caused
anything
Lissabon
tn@@
Lassen
Fu@@
ord@@
Amendment
schließen
Le
lie@@
begin
games
Republik
challenge
alone
Is
Chinese
verantwortlich
month
historischen
street
Viele
Gro@@
flo@@
Sicht
ut
Beginn
anders
Ban@@
beste
email
interested
pen@@
gesehen
Mag@@
raum
ga@@
Forschungs@@
Aufenthalt
gew@@
erklärt
kti@@
Ressourcen
Dr.
annual
cities
Spanien
häufig
sches
erfolgreich
plans
Fest@@
lösen
reichen
Vergangenheit
neues
Finanzierung
ür@@
200@@
barkeit
ready
cut
Rechtsvorschriften
long-term
gewesen
chance
vollständig
Konferenz
ages
wal@@
languages
zahlreichen
Technologie
RA@@
erwartet
ktionen
I-@@
mountain
stelle
Wochen
Datei
thought
waste
bin@@
zer
sa
jeweiligen
welches
Kultur@@
child
erfüllen
Zweitens
farmers
banks
Airport
#
2-@@
Wahl@@
IM@@
Fe@@
äre
ette
Gruppen
wahrscheinlich
Fre@@
erungen
Erfahrungen
unten
braucht
leg@@
release
cur@@
ously
1996
Thank
Moreover
ET@@
lost
1-@@
Produkt@@
Fund
worked
ungsp@@
selection
´
Ku@@
ien
garden
Schritte
extent
EC
ture
kam
geschaffen
FR
methods
jo@@
on-@@
ich@@
ics
una
Vertrauen
scientific
Inhalt
zumindest
relating
Conference
ada
accession
businesses
stets
Werte
Lin@@
accordance
endlich
green
genutzt
advantage
ss
schützen
method
mention
images
walking
ier
verpflichtet
sectors
genug
ulation
Hei@@
comfort
Cas@@
strategic
tor@@
Natur@@
ack@@
Aspekte
cre@@
teten
außerhalb
Herausforderungen
Kunst@@
ai@@
31
Wein@@
sol@@
z.
powers
folgt
fields
Mat@@
gend
despite
danke
lat@@
processing
gan@@
Directive
san@@
Not
Berg@@
erter
Sti@@
Einige
influence
hol@@
Allerdings
fahr@@
legt
5-@@
32
heutigen
bet@@
hören
tics
gte
fish
Russian
seines
Angelegenheit
Dazu
privaten
US@@
abge@@
letzte
menu
Kunden@@
visitors
raised
loss
neu@@
Wohn@@
Benutzer
innovation
Ireland
amerikanischen
persönlichen
motion
alt
fac@@
Security
cally
25@@
mes
del@@
Only
flexible
vollen
ology
separate
Im@@
wert
Gebäude
Mu@@
hen
doubt
erlaubt
wing
senden
Pri@@
Public
trying
è@@
Parteien
bessere
Schwierigkeiten
trotz
accepted
Obwohl
implement
Berichterstatterin
ir
absolutely
Google
gest@@
join
od@@
Falls
sechs
ausschließlich
regime
75
Star
zation
Staat
Spieler
post@@
Sonder@@
map
Col@@
bilden
™
demands
justice
ole
Neben
Ap@@
Bur@@
folgenden
°
deten
Arbeitnehmer
Gesamt@@
scope
Hinsicht
Ur@@
alität
Secondly
overall
moderne
Dann
Gegen@@
UK
Wer
critical
borders
schwer
affected
cra@@
²
negative
Milliarden
placed
enz
tal@@
Ihres
cover
demokratischen
Einrichtung
Folge
Bre@@
More
verkehr
Praxis
oren
Krieg
ns
swimming
contract
Vertreter
yourself
Prozent
länder
ast
entscheiden
übernehmen
intended
cli@@
gekommen
Free
Ka@@
laufen
ls
e-mail
zudem
getting
Its
usually
gang
running
bitten
wo@@
Denn
automatisch
Ac@@
Wunsch
SP@@
EM@@
Angelegenheiten
Arbeitsplätze
и@@
beide
uri@@
Grand
erinnern
Computer
richten
anti-@@
ki@@
heard
Opfer
Instrument
target
calls
love
suitable
Indeed
30@@
Aufgaben
bewusst
Afghanistan
generation
aff@@
reforms
rel@@
Red
Station
begrüßen
Solidarität
g-@@
deine
adopt
kaum
Bus@@
says
warm
currency
rich@@
Privat@@
relationship
SA@@
Dra@@
gebiet
nu@@
Bra@@
gabe
sierung
in-@@
ear@@
ierung
mainly
Zusammen@@
evening
tru@@
allgemeinen
Frieden
usw.
administration
freie
Ö@@
nt
initiatives
committed
Z
erkennen
namely
gelegen
Systeme
increasingly
3-@@
Organisationen
ün@@
Armut
mor@@
installation
opening
President-in-Office
representatives
om
tour
freuen
vital
terrace
29
maintain
Annahme
expressed
El
Pan@@
traffic
planning
Leute
talking
normal
etc.
tw@@
ität
stand@@
border
Wieder@@
proper
union
6.@@
ures
bald
Nun
Erstens
Cre@@
mission
produ@@
born
structural
tation
ical
sha@@
darstellt
Verfassung
endes
größere
stress
benutzt
improved
students
qui@@
teil
vorgeschlagen
eindeutig
haus
families
Karte
approved
serve
Agenda
ek
Sitzung
goal
rechts
Anti@@
signed
sage
automatically
correct
Sen@@
elt
Verpflichtungen
ws
comments
nationale
zusätzliche
Hause
ado
uni@@
industrie
Reise@@
competitive
powerful
onen
CH@@
zes
People
Anstrengungen
Außen@@
Falle
cker
dri@@
confidence
Online-@@
tourist
Win@@
Funktionen
DVD
zeiten
ah
Costa
Idee
Sub@@
Hu@@
infrastructure
plus
Iraq
reduced
bil@@
unbedingt
Da@@
globalen
rechte
India
decide
tionen
Hel@@
Tran@@
Ca@@
fan@@
beginnen
delivery
feature
Protokoll
entspricht
erenden
unemployment
überzeugt
protected
Fer@@
Kriterien
Enterprise
stärker
super@@
fun@@
photo
collection
Partei
ach
lt
administrative
ße
supports
cohesion
screen
Zustimmung
stu@@
Wahlen
400
4-@@
gesprochen
aktuelle
š@@
began
offen
ren
stable
format
extensive
covered
mindestens
served
Informations@@
Schul@@
schaften
emissions
Produktions@@
langen
circumstances
rein@@
conclusion
а@@
sicherheit
gleiche
eter
anischen
Ist
Wann
founded
Nations
well-@@
sources
Vereinbarung
mark
Ä@@
Verwaltung
tions@@
ca@@
lich@@
sign
contribute
01
worth
Osten
Reformen
rei@@
functions
ational
pleasant
Office
genannt
AM@@
priorities
vorgelegt
iger
gs@@
zug
electronic
likely
unterschiedlichen
selbstverständlich
financing
introduced
gezeigt
UR@@
nor@@
Terrorismus
defined
EL
prozess
Vorteile
min
Gipfel
plants
ban
Just
mittel@@
else
larger
effectively
att@@
Ak@@
cal@@
Anerkennung
Each
prüfen
white
encourage
speaking
Kre@@
ised
glauben
stat@@
Fra@@
ral
understanding
gerecht
Inhalte
Greece
ensuring
dringend
DI@@
exist
Produkten
ars
erwähnt
cia
crime
isch@@
ko
Qualitäts@@
mehreren
Code
Technologien
laws
ase
risks
tabled
verfügbar
schutz
150
Stabilität
managed
wünschen
track
klicken
fresh
ame
Haushalt
positions
ved
entsprechende
wider@@
Homepage
Kern@@
Binnenmarkt
whom
listed
Straße
Mc@@
Cal@@
opened
Besuch
PL
ik@@
Asia
ue
Standard
Swiss
War
victims
erk@@
ple@@
detailed
wonderful
alisierung
At@@
played
50@@
tä@@
ice
wesentlich
Zudem
ha
Sektor
Produkt
participation
Ausschuß
Why
Kal@@
ara
chs
Rec@@
Test@@
....
2020
appear
E-Mail
stated
Val@@
cul@@
berücksichtigen
ti
erfahren
fort@@
agriculture
programs
D-@@
uli@@
hoffen
optim@@
Prä@@
Mark@@
testen
IL@@
Schließlich
record
multi@@
Über
sam@@
wrong
animals
las
Plan@@
burg
Sommer
Comp@@
hinweisen
camera
nachdem
bal@@
discuss
arbeitet
erende
sitting
Volk
paper
kommenden
exactly
Frankfurt
möglicherweise
work@@
debt
shi@@
transparent
bestimmt
sse
selected
1995
manner
De
limit
Zunächst
specifically
Then
siert
ki
becoming
won
beds
akzeptieren
о@@
Durchführung
regular
aimed
markt
si
Mitteilung
partnership
income
door
Nord@@
purposes
ME@@
Sh@@
Medi@@
Tier@@
Plan
zeit@@
linked
benutzen
Bor@@
metres
aktiv
ley
back@@
February
expected
vision
technische
erzielt
wants
ON@@
votes
rü@@
represents
developments
ang@@
és
discussed
sicherzustellen
rural
referred
Chance
bestehenden
fri@@
fahrt
sec@@
Anwendungen
Sol@@
le-@@
besonderen
fle@@
id@@
measure
Augen
zentrum
assessment
Sea
went
tic@@
poli@@
Medien
las@@
gelegt
cy@@
getroffen
Nicht
discussions
rop@@
dienen
laden
far@@
Fin@@
Unterkategorien
ato
scale
Suche
marketing
han@@
euch
geändert
Lan@@
precisely
fying
warten
igen
sub-categories
erg@@
hor@@
thousands
siehe
Einrichtungen
entry
trägt
bedarf
acht
DA@@
teil@@
fellow
Apartments
police
Rooms
spacious
Ski@@
inside
shop
cas@@
unver@@
bro@@
sufficient
möglichen
essen
co-@@
Nutzen
umgesetzt
ig
spend
Wettbewerbsfähigkeit
ration
Kan@@
zuletzt
medical
person@@
tures
enterprises
Haltung
otherwise
erfüllt
tisch
ID@@
ish
introduction
stoffe
Standards
Bild@@
LA@@
wenden
earlier
ft@@
notwendigen
imp@@
arbeit
finanziellen
operations
Kontakt
kitchen
client
Kunst
Social
Cam@@
reich@@
gener@@
followed
Middle
playing
Agreement
dient
liber@@
houses
budgetary
exclusive
Em@@
pol@@
lig
Zeichen
Einfluss
stimme
facing
connected
closely
elegant
vari@@
alism
Monate
tional
Bas@@
Board
achten
Ausbildung
winter
anderes
lä@@
voller
Vol@@
schreiben
represent
á
rent
eingerichtet
ots
jene
oll@@
stone
losen
NATO
Tro@@
path
considerable
stei@@
festgelegt
Char@@
ON
strengthen
select
jederzeit
atic
elles
buildings
ergreifen
Met@@
Most
vermeiden
Best
Switzerland
ner@@
hour
Christian
Gal@@
Super@@
ften
happen
24@@
cher@@
fla@@
beziehen
pat@@
Green
lö@@
She
Klein@@
save
institutional
zen@@
äu@@
blo@@
spar@@
degree
Kindern
Anspruch
shops
supporting
darunter
Pra@@
John
guidelines
shower
geeignet
Film
Schutz@@
lichem
rat@@
season
verfolgen
ingly
pe
Vielfalt
Bro@@
Meter
so-called
discrimination
C-@@
Human
stärken
Menschenrechts@@
Wal@@
politischer
dlich
pra@@
jeweils
purchase
Innovation
immigration
sion@@
improving
Gesch@@
remember
sionen
Zei@@
networks
Menge
ica
stadt
telephone
nisse
High
außer
7.@@
components
Ü@@
ark@@
daten
acts
handeln
angezeigt
Roma
erhöhen
wel@@
Video
Star@@
ey
hear
speech
sicherlich
buy
vern@@
Policy
übernachten
Konzept
erzielen
His
cards
Schweiz
experts
Pu@@
Webseite
http
welcher
broad
Czech
fun
average
entschieden
ckt
Leistungen
stellte
teilweise
Vertrags
cuisine
unbe@@
,@@
&apos;ll
aren
gem
entweder
funktioniert
fs
Spa
e.g.
ologie
gelangen
thinking
Familien
fällt
besuchen
ass
typical
zo@@
stock
Stand
tourism
spielt
suggest
schi@@
ire
Installation
char@@
Fischerei@@
wären
fung
verbessert
spricht
gave
pul@@
Economic
seem
trust
Familien@@
2011
properly
Sprachen
digen
reception
Name
presence
items
rit@@
wood
Unfortunately
entirely
mü@@
Because
IP
Instrumente
Februar
Jetzt
Abschließend
inen
relate
element
Pol@@
ction
Research
Wege
klare
werte
sagt
provision
lungen
erleben
Warum
Stimme
Pe@@
ID
competitiveness
spirit
core
Verwaltungs@@
richtigen
spor@@
fied
ine@@
Veränderungen
Tätigkeit
rat
Kenntnis
Leider
Garten
ella
generally
Vereinten
uren
gebaut
ek@@
ef@@
rin@@
Berichte
dé@@
Arbeiten
Poland
spon@@
com
stes
difference
hab@@
refer
Click
Abschluss
kur@@
oo@@
presidency
Pas@@
lands
Forderung
ona
erstellt
bodies
bes
Fo@@
Modell
summit
display
hervor@@
feld
Initiativen
machines
dro@@
IN
tradition
actual
zing
Brussels
speziell
Forum
reasonable
ausdrücklich
Mitte
ently
authority
ian
che@@
Bürger@@
prior
ged
vorgesehen
Vergleich
wollte
domestic
advanced
coordination
politics
informed
Zeiten
Hor@@
fel@@
dealing
dagegen
schutz@@
Plat@@
betonen
Ob@@
Vielen
PT
Adresse
informieren
win
kom@@
meetings
district
character
hot
Street
Regelung
Teile
Engagement
Once
Abgeordnete
difficulties
cap@@
95
Irak
vehicles
ay
plan@@
Ausgaben
parliamentary
animal
Internet@@
Besucher
condition
Post@@
les@@
Great
coffee
experienced
flexibility
appears
tt
My@@
täglich
durchaus
dete
bedingungen
möglichst
gewinnen
numbers
peaceful
applies
Musik@@
ze@@
zentrale
beschlossen
Transport
told
Herausforderung
estate
All@@
fisheries
becomes
cl@@
Dienste
vorhanden
sets
consideration
permanent
amen
Mitgliedstaat
spe@@
sem@@
lig@@
wenigen
spiel@@
ants
Angaben
According
Mer@@
Gel@@
lokalen
resort
ye
sign@@
haft
Dec@@
rus@@
Zeit@@
Breakfast
nte
Des@@
ath
Werk@@
mark@@
Ziel@@
dly
gefordert
origin
ory
Golf
tere
Klicken
Wer@@
99
heiten
Zeitraum
ty@@
Not@@
angeboten
Komfort
Pap@@
Währung
Indi@@
break
dank
Ph@@
Durch@@
benötigt
Air
Can@@
courses
Mis@@
konkrete
Gas@@
sieren
Druck@@
stein
wahr@@
monetary
--
net@@
Großbritannien
ingen
ink
ware
election
stic
easier
Hauses
freue
establishment
hu@@
veröffentlicht
Multi@@
36
lie
picture
economies
trip
ours
Jahrhunderts
God
Dem@@
finanzielle
ash@@
starke
database
gruppe
Mio.
pla@@
Net@@
analy@@
high-@@
threat
gem@@
ungs-
fixed
Gebieten
structures
führenden
combat
dliche
art@@
aspect
ige
Nieder@@
konzentrieren
practices
ordnung
führte
Wissen
gewährleistet
leader
AB@@
bor@@
aims
ched
forget
geln
kulturellen
gene
weight
ination
Status
Dennoch
ships
34
tätig
erfolgen
attempt
Auto
models
darstellen
Terrasse
nächste
Comm@@
Tour
Madrid
continued
arten
entstehen
ker@@
erscheint
val@@
Beitritt
south
län@@
spent
erstellen
sides
stehenden
failure
sou@@
tät
Herstellung
Programms
Nachfolgend
combination
flow
myself
satz
Kingdom
AG@@
club
Online
buffet
dre@@
Worte
erklären
propose
exp@@
translation
seriously
med
glich
fund
Del@@
geschrieben
tage
Mas@@
dennoch
Sur@@
ery
Einigung
ct
Association
Rede
Cap@@
syn@@
sters
unabhängig
Antrag
Zweifel
cking
schönen
associated
detail
post
е@@
steigen
sischen
Kirche
ater
vis@@
attractive
dec@@
48
air@@
betrachtet
Santa
oni@@
gruppen
nis@@
Zweck
ited
Res@@
Klima@@
promoting
schwierig
anyone
Spezi@@
ancient
himself
Sie@@
ahead
relax
unterschiedliche
Forderungen
off@@
д@@
Kno@@
cke
Pakistan
welt
gegründet
differences
studies
Open
sta
reducing
reservation
Fran@@
availability
finance
brand
fähigkeit
web@@
Belarus
anlagen
ester
Sehr
announced
Kom@@
eingehen
grounds
IF@@
Analyse
beaches
Geld@@
gain
changing
ehr@@
hon@@
reicht
umfasst
pre-@@
Universität
impossible
Regel
carefully
Österreich
sun@@
phase
Einhaltung
Mac@@
released
inform@@
Wor@@
Liefer@@
voice
gestalten
absolut
humanitarian
balanced
Stellungnahme
museum
clo@@
98
Fl@@
Mess@@
Aufnahme
one-@@
asi@@
geschehen
Ã
booking
ziert
shared
2.
sho@@
charged
diskutieren
Firstly
Stra@@
Kl@@
uner@@
consumption
session
dangerous
cars
heraus@@
opposition
ring
Dollar
Griechenland
immediate
Sehenswürdigkeiten
enst@@
kaufen
nahme
einiger
names
Uni@@
producers
Irish
geleistet
happened
Private
dic@@
ists
defence
agencies
learning
hands
Texte
architecture
statements
duty
books
liebe
race
EADS
As@@
concrete
implementing
fire
keeping
Fonds
fore@@
band
läuft
Hal@@
schul@@
Tr@@
trading
harmon@@
gers
-F@@
exhibition
ely
wall
Gleichzeitig
Abend
Trade
Achtung
England
Stellen
regi@@
regionalen
iti@@
rück@@
Ki@@
halt
zimmer
istischen
ertes
Kommunikation
Health
river
Sil@@
arrival
inform
advance
folgende
eck@@
pictures
lets
truly
respond
Angesichts
Vielzahl
instance
Guest
lia
amm@@
article
de-@@
raise
MA@@
button
introduce
criminal
Due
Prime
Sorge
ée
profitieren
evidence
ländern
described
Hersteller
Entwicklungen
Every
Fuß
Cro@@
recommend
Trans@@
don@@
Download
verfolgt
bit@@
Paket
Hintergrund
skills
ning
meters
Aspekt
Sport
improvement
garantiert
überprüfen
600
37
cy
Prioritäten
registered
Dokument
tten
ising
Europeans
Links
ick
relaxing
Voll@@
elected
Arten
recognition
guarantees
zy@@
Casino
calling
passed
ISO
bas@@
port@@
feststellen
Polen
genuine
bt
standing
spending
т@@
tik
possibilities
einander
continues
nearby
chi@@
verlassen
werke
exc@@
Arbeitslosigkeit
Gei@@
ei
sale
System@@
Very
Afrika
Rechnung
у@@
reliable
television
installed
membership
wishes
seite
kosten@@
CA@@
Rot@@
Ja
sort
weiterer
pal@@
Gast@@
unacceptable
combined
devices
Partnerschaft
Stil
persönlich
gef@@
firm
Mann
packages
и
hom@@
Rad@@
sichern
gutes
istische
color
campaign
Stärkung
ack
figures
bauen
dor@@
adoption
empfehlen
Foundation
felt
miteinander
religious
1994
Seine
seek
fiscal
completed
reg@@
Nacht
übrigen
ai
33
enables
bezeichnet
allowing
cat@@
unless
orders
territory
ausschuss
black
greatest
zeichnet
strongly
Indien
African
kept
insurance
Moment
gegenwärtig
sensitive
Kat@@
gent@@
participate
tasks
Deutsche
Gesetz
IR@@
gkeit
angesprochen
st-@@
tly
III
Leistung
Betrieb
sli@@
Grenz@@
Lesung
surrounding
Bedürfnisse
greifen
eingeführt
k-@@
ante
•
frei@@
aci@@
obtain
chan@@
Problemen
2,@@
manage
französischen
Zwei@@
Ideen
Manager
Formen
gegenwärtigen
Beschreibung
zeichen
ander@@
contain
cho@@
hingewiesen
unfortunately
Justice
erhält
Tradition
bars
zz@@
Titel
court
closer
überall
Gemeinsamen
Irland
tend
zufrieden
groß
flu@@
Aussch@@
definition
tiges
fear
anten
positiv
surface
fordert
Another
demokratische
beginnt
attractions
cro@@
ering
middle
ological
Barroso
Banken
absolute
desire
mag
guide
9.@@
geschützt
ken@@
Sinn
0-@@
Player
komplett
Elemente
coast
einsetzen
Last
Richtlinien
OL@@
tom@@
dad
danach
dedicated
Open@@
Priorität
compared
dy@@
TR@@
Such
unterstütze
werk@@
etz@@
alist
platform
Agrar@@
sun
Überwachung
window
Hamburg
w-@@
beauty
Dor@@
großes
signal
to-@@
leistungs@@
piece
listen
We@@
wagen
tens
Pat@@
Ter@@
fälle
lige
800
aufmerksam
keinerlei
Fisch@@
umfassende
indi@@
Federal
38
Bio@@
Vienna
vo
Jeder
Turkish
ausreichend
einfache
lo
kers
End@@
interface
bear
wasser@@
cle@@
Regelungen
forced
Geschäftsordnung
erforderlichen
corporate
mehr@@
punkt
pun@@
marked
Hol@@
kes
route
enormous
claims
besitzt
Fortschritt
Meiner
größeren
gezogen
Bewertung
Anteil
s.@@
Can
cm
failed
sämtliche
spezielle
Verhältnis
bestätigt
biggest
beteiligt
ate@@
Technik
Märkte
gri@@
ön@@
Kritik
Ei@@
vorliegenden
Geb@@
dat@@
individuals
AL
an-@@
export
ands
square
perspective
publi@@
haften
länger
accessible
Größe
storage
entitled
comment
assen
09
luxury
Eastern
moving
55
science
sonst
licherweise
ically
onto
tests
extended
Hin@@
Entwurf
Poli@@
ths
Stu@@
holidays
Greek
National@@
exercise
Home
Michael
ins@@
install
totally
device
Prinzip
story
wind
Inn
Hi@@
trag@@
nennen
Nevertheless
write
convinced
ay@@
tal
rufen
Beschäftigungs@@
railway
rau@@
schöne
ined
Brüssel
Innen@@
wunder@@
mittels
Democrats
val
iel@@
vier@@
Verpflichtung
Ost@@
straße
urgent
hel@@
institution
internationaler
ends
Mil@@
memory
kostenlos
Yet
sation
č@@
fall@@
advertising
verbundenen
nten
Syn@@
d.
hof
hergestellt
dem@@
offensichtlich
bul@@
mail
gelöst
host
garantieren
Globalisierung
factors
wil@@
ständigen
cent@@
ssi@@
tou@@
discover
Agentur
Maße
controls
church
vit@@
Haup@@
Unternehmens@@
flight
starken
ward
engine
Mitteln
advice
drawn
organization
äl@@
Worten
Treffen
expensive
ath@@
bath
ances
sel
Bush
1990
alismus
amb@@
führ@@
Betriebs@@
Far@@
Netherlands
tz
Institute
initial
kraft
Fotos
vers
Lake
ka@@
bekannten
08
payments
Austrian
karte
Kraft@@
disease
seh@@
organised
chosen
stattfinden
granted
dienst
Unterkunft
bahn
weapons
Altstadt
nation
lar@@
Kol@@
zusätzlich
unable
beinhaltet
Gründe
ams
Atom@@
fern
Studio
reisen
ener
schlagen
Company
Motor@@
tig@@
Men@@
establishing
Verkehr
Ir@@
Monat
limits
stan@@
outcome
ero@@
ersch@@
ligen
onn@@
oh@@
mögliche
übertragen
Festival
contrary
Umfang
28@@
zählen
deutsche
&apos;re
perfectly
linie
Kenn@@
Han@@
attack
zeu@@
wirken
Shi@@
Wa@@
update
р@@
Tal@@
6-@@
mas@@
conclusions
print
Resort
ane
Niveau
Erklärungen
wesentlichen
tar@@
adi@@
saw
Control
sell
solcher
tried
mountains
massive
posi@@
Lam@@
7-@@
zw@@
britischen
zufolge
rechten
Beteiligung
Pen@@
ot
Palace
neither
betrachten
ku@@
fit
rightly
OT@@
Generation
furnished
ambitious
Thus
commitments
verloren
water@@
zung
ov@@
Gott
Are
tical
zuvor
olo@@
ierte
Foreign
valid
Volks@@
lag
Gegensatz
ining
finde
vehicle
Risiken
background
Patienten
existence
eigen@@
entsprechen
berei@@
Reise
successfully
minister
Politiker
sat@@
relativ
fic@@
ierten
agency
convenient
maintenance
Sta@@
Europäer
Note
artists
ular
Entschließungsantrag
äch@@
gelungen
komm@@
Schlüssel@@
Option
Flexibilität
register
asylum
speziellen
Methode
pos@@
Data
h.
stru@@
Bildungs@@
ust
Kompromiss
Gre@@
ther
honourable
claim
8.@@
approximately
unto
Palestinian
Eindruck
Mitgliedern
Aktionen
ata
remind
fach@@
candidate
Ereignisse
mei@@
para
wider
older
gehalten
ol
Mel@@
sy@@
ç@@
tin
07
Aussicht
nation@@
Sprach@@
gegangen
Weitere
achieving
TH@@
asking
Absatz
rechtlichen
Beim
constantly
PHP
yst@@
abgeschlossen
Latin
cou@@
surrounded
kul@@
Peter
lungs@@
ett@@
geöffnet
obviously
ía
jüngsten
deliver
targets
monitor
Aufbau
pas@@
Nachdem
intervention
O-@@
lichkeiten
manchmal
m2
continuing
lake
produktion
utili@@
guter
daraus
Bis
unit
schafts@@
stoff
nom@@
goals
expression
mäßig
x-@@
category
Located
Wirkung
paragraph
chs@@
dungen
Sor@@
down@@
Air@@
Verständnis
foot
Begriff
Innen
Empfehlungen
independence
informiert
touch
erhöht
IG@@
xi@@
promotion
reden
Erde
colleague
outstanding
nationaler
stal@@
stations
Projekt@@
alisation
fort
Gebiete
Card
wn
nung
Hon@@
loc@@
contents
Öl@@
в@@
hauptsächlich
Na@@
title
aircraft
laid
Dan@@
gets
Constitution
yl@@
Haus@@
Eigen@@
rep@@
Bet@@
ch-@@
fen@@
Realität
deep
erfordert
wh@@
Lie@@
someone
19.
operate
öl@@
suite
bildung
fte
spiel
Versch@@
Anlagen
Meeres@@
ideale
Start
Botschaft
ischem
photos
dia
obligations
Q
verk@@
vous
Phase
factor
advantages
Obama
0,@@
origin@@
Eing@@
ching
dom@@
Mand@@
Media
north
ri
Zahlungs@@
staatlichen
yesterday
physical
SI@@
Hoffnung
store
rech@@
Risiko
Nutzer
beachten
Those
Führung
Farb@@
contained
planned
Zi@@
SE@@
Regulation
м@@
fühlen
0er
Tu@@
fication
genen
intensive
mobili@@
te-@@
binding
boo@@
Fol@@
ord
emb@@
counter@@
qualified
obvious
Sar@@
berühmten
dge
ink@@
damals
tsp@@
Inseln
looks
recommendations
öh@@
waiting
ari
1992
decades
wichtigste
Mus@@
mass
Grundsatz
PR@@
participants
Doppel@@
equality
allgemeine
nearly
Market
Agency
Tages@@
bringing
hafte
Teilen
denk@@
sobald
capable
geschieht
Vom
ks@@
situations
Dom@@
ports
Off@@
ee
governance
Both
expenditure
recovery
fal@@
gol@@
oral
kar@@
consists
testing
globale
Rel@@
staaten
Rome
lang@@
communities
führer
putting
Paul
tab@@
jungen
einzigen
setzung
pointed
seeking
landscape
Winter@@
hängt
merely
species
hilfe
legung
65
regelmäßig
dimension
Beach
ECU
stoff@@
manufacturing
Süd@@
Hinweis
sions@@
plat@@
wirtschaft
Einkaufs@@
Firmen
Grunde
prevention
smaller
fonds
aufen
servi@@
MS
Bedarf
satellite
leads
trifft
einverstanden
е
Ren@@
nachhaltige
festgestellt
fy
Fraktionen
stor@@
Beihilfen
persönliche
Hauptstadt
AS
Voraussetzungen
dynamic
н@@
read@@
trä@@
Energy
substantial
Vorteil
Hälfte
Gegenteil
fi
Other
mechanism
medium-sized
Ebenso
Square
eli@@
Dimension
Is@@
disposal
sicht
Korea
sprache
registration
i.e.
Pro
soft
consistent
,00
liste
High@@
politisch
physi@@
zugleich
turned
Ham@@
tag
mode
vorgeschlagenen
Welche
bewegen
Gri@@
etten
entgegen@@
ré@@
betroffen
Städte
Energi@@
Bestandteil
jährlich
64
contemporary
Summit
eck
Wettbewerbs@@
dos
Regi@@
fron@@
ge-@@
Any
guaranteed
browser
acceptable
causes
named
echte
Infrastruktur
extend
Out@@
anbieten
Vertrags@@
arms
kor@@
rapid
Veranstaltungen
meaning
glass
Auto@@
Prüfung
Global
spezi@@
el-@@
Ul@@
driving
schneller
Fa@@
brings
Teil@@
Landschaft
Royal
Klimaanlage
ables
praktisch
wir@@
spa
versions
traditionellen
aries
serves
compliance
wodurch
determined
alised
technological
Internationalen
flü@@
examples
Holz@@
u.
stabili@@
Rules
Farben
tte
Ruhe
Ausland
42
fand
Winter
resulting
spread
.de
betroffenen
regeln
beschäftigt
Angebote
Rau@@
minim@@
my@@
treated
herzlich
voran@@
.00
Thanks
Sweden
by@@
Zahlen
sia
wn@@
Time
primary
erin
ately
hau@@
seven
yn@@
golf
The@@
na@@
conclude
Kontroll@@
Island
ola
mut@@
woh@@
Details
object
van@@
enter@@
vorschlagen
Buch
Bon@@
Dienst
gewählt
Unabhängigkeit
Environment
bers
atische
optimal
Zimmern
spaces
pleasure
adequate
wait
Gesetzgebung
block
Erhöhung
liability
früher
stellungen
EU@@
attacks
patients
fuel
Struktur
Aufgrund
Nu@@
explain
addressed
Martin
05
forest
JavaScript
temp@@
vollkommen
Trotz
stoffen
welchen
weiteres
begann
responsibilities
OS@@
Material
gesellschaft
kürzlich
Stat@@
nations
run@@
kun@@
junge
Tex@@
entwicklung
copy
radio
96
industries
strengthening
association
Format
ous@@
besseren
THE
strategie
diversity
3.
extreme
Sonnen@@
Überprüfung
bot@@
asse
Charakter
zurückzu@@
multi-@@
nis
fällen
Königreich
Alliance
ming
einerseits
bedroom
zählt
alo@@
schools
Rom@@
diskutiert
talks
cer@@
Ratspräsident
Bus
identity
nden
Unternehmens
49
Serie
ba
reagieren
Stadtzentrum
technik
IA
sky
fur@@
miss@@
Methoden
Liberalisierung
F-@@
primarily
remove
Quali@@
Laufe
taste
nah@@
sum
entered
evaluation
Pool
temporary
Lau@@
GDP
Männer
urban
schön
notice
Nice
kinds
ion
Mindest@@
97
lots
250
steel
Enjoy
ye@@
previously
thereby
Bewegung
Financial
bezieht
Dutch
ING
Gästen
anda
freiheit
multiple
liefern
requested
investments
Kr@@
es-@@
ball
bing
sam
Licht
consensus
quick
mb@@
digung
einzelne
Handel@@
accounts
imm@@
Mehr
Diskriminierung
ppen
Teilnehmer
Liebe
Prin@@
160
Romania
discussing
л@@
tour@@
ßt
Link
delay
stimmt
explo@@
spezifischen
dest@@
abhängig
squ@@
Absch@@
T-@@
mil@@
esen
Mad@@
delivered
ñ@@
bequem
Vil@@
bereiche
26@@
Grenze
head@@
gone
cam@@
angeht
ena
Netzwerk
Klimawandel
skin
Waren
Fähigkeit
umwelt@@
ktions@@
Leistungs@@
PL@@
Ordnung
1993
ly@@
leadership
barer
seitens
all-@@
weg@@
representative
Despite
8-@@
85
pension
Fälle
ele@@
bildet
competence
willing
pour
Suite
opposite
Pic@@
Dokumente
Westen
Wander@@
rail
Nicht@@
visible
intensi@@
Koordinierung
Industri@@
к@@
danger
sten@@
akzeptiert
default
Bank@@
Maria
feeling
Ansch@@
Tiere
Reaktion
ffen
IB@@
20.
positiven
Brenn@@
Minutes
controlled
southern
manufacturers
holding
Freunde
atives
betont
prepare
tem@@
hy@@
regionale
alle@@
Anpassung
Militär@@
preis
tenden
eng
dealt
spezifische
Versuch
Beh@@
gemein@@
leiden
Kombination
Lehr@@
letter
rati@@
dol@@
Unterschiede
Gefühl
sicherstellen
Willen
affect
SO@@
Amerika
set@@
Pop@@
wealth
urge
wirkt
PH@@
ländlichen
Day
speakers
sanctions
moved
forum
wards
demo@@
runs
PC@@
Dadurch
represented
Such@@
diverse
conduct
Stunde
ard@@
compatible
ez
verlieren
übernommen
Two
sian
breite
presentation
Umständen
í
Wegen
tain
deb@@
destination
Vorbereitung
höchste
cies
Körper
significantly
Before
dlichen
Ther@@
Gesetze
sur
Telefon
fruit
rechts@@
approval
dritten
Find
06
eins
EG
Süden
andererseits
m-@@
Via
parti@@
Zustand
noise
GB
basiert
strength
quote
serviert
nochmals
Nov@@
AT
ked
ehemaligen
author
Kam@@
dig@@
zustimmen
Anliegen
Kri@@
viel@@
Diskussionen
ergeben
verstärkt
shape
recommended
Aqu@@
Strategien
Bahnhof
expertise
alter
tigkeit
Vielleicht
Vit@@
Eigenschaften
hinter@@
Teilnahme
sle@@
ül@@
Spe@@
arbei@@
z-@@
abo@@
launched
gewisse
Delegation
Roman
nötig
preise
locations
Einklang
wiederum
bericht
Anlage
PS
seien
Mul@@
improvements
ón
fr@@
charming
mechanisms
dig
Erd@@
Mein
Nutz@@
highlight
Bedenken
Studie
helping
knows
websites
relatively
ppe
Techn@@
bon@@
soweit
Support
length
amongst
fei@@
Tru@@
cing
Je@@
gestern
helps
mutual
derzeitigen
mental
haltung
Kunde
micro@@
engineering
refugees
vielmehr
expectations
gens
zunehmend
reply
Freude
Verbraucher@@
consultation
abkommen
esti@@
Regierungs@@
grün@@
zt
Schule
sieben
Back@@
White
WC
verlangen
boat
covers
Kollege
zieren
Lebensmittel@@
bedrooms
trees
Gener@@
bung
Poker
Spiele
Verfügbarkeit
en-
experiences
39
interpre@@
delegation
Reg@@
ran
Rotary
except
ile
schei@@
Hilfs@@
requests
sold
keiner
Voraussetzung
Express
21.
umfassenden
Munich
acting
sper@@
MO@@
opp@@
ED@@
amerikanische
Fern@@
X-@@
Che@@
Sanktionen
ced
p.m.
unternommen
Wien
attitude
cel@@
Antworten
units
dir
privacy
Book
schen@@
weltweiten
western
fill
Straßen@@
taxes
Sha@@
tritt
solve
Ob
genauso
historische
finding
anerkannt
lern
behörden
preis@@
wichtiges
werfen
discovered
Fas@@
lauf@@
dert
\
Kosten@@
Rou@@
tra
Prodi
respective
articles
Geist
trotzdem
kol@@
02
Formular
Ges@@
aging
aro@@
befassen
furniture
Plaza
Mak@@
qualität
AU@@
faced
cri@@
din@@
Tod
Tit@@
stro@@
ausschusses
ong
hilft
ghts
streets
l-@@
tau@@
Technology
deiner
03
Standard@@
heraus
th-@@
Allgemeinen
dishes
cheap
aktive
ala
gegen@@
profit
dinner
los@@
Effizienz
höhere
3D
Wider@@
fighting
Take
Grundrechte
drugs
Apartment
behandeln
Zugriff
f-@@
trau@@
ände
obligation
politicians
regret
Raum@@
Mikro@@
Sam@@
latter
appeal
bio@@
Untersuchung
Architektur
elled
spot
Verhalten
texts
kleiner
Karten
Sitz
rejected
ziemlich
Geh@@
Str@@
hoher
Definition
Küste
temperature
tours
sorgt
ruhigen
ktive
appreciate
Berücksichtigung
fantastic
compensation
Vis@@
dans
Übereinkommen
River
700
Power@@
mitten
healthy
techn@@
dienste
gespielt
Industrie@@
kan
walls
emphasis
lam@@
Schi@@
identi@@
Prof@@
jemand
constant
rely
Welcome
tran@@
konkreten
Schäden
120
enth@@
arch@@
gsten
Tatsächlich
emphasise
Kapital@@
ativen
Kauf@@
recognise
Fil@@
extension
centres
willkommen
tho@@
Gold
Beifall
exists
10.@@
ст@@
arrangements
Wil@@
betreffen
PDF
error
Grundsätze
producing
esses
niemand
sicher@@
1000
ktion@@
menschlichen
reflect
ania
buchen
ills
watch
erhältlich
Putin
Auftrag
handling
0.000
figure
Britain
hum@@
Mau@@
gungen
User
equ@@
resolve
Chamber
objects
Sel@@
truth
Buch@@
Paper
cycle
wesen
schätzen
ble@@
beg@@
xes
suffering
Video@@
not@@
Lebens
master
Verträge
Use
helped
ama
q@@
beträgt
operators
intention
karten
duc@@
audio
kal@@
dates
kat@@
Liber@@
sinn@@
Pf@@
44
ered
produkte
profile
ligh@@
eiten
substances
entdecken
erscheinen
comply
lim@@
Letz@@
proof
Lord
tern@@
Materialien
schau@@
tter
acy
Camp@@
Bl@@
Friedens@@
log
output
parallel
Bau
Flu@@
künftig
reich
S.
Kategorie
rup@@
Leitlinien
ared
ads
cent
ello
unge@@
Fernseh@@
IP@@
whatever
OR
Maßnahme
Test
schließt
David
Norden
NL
affairs
Eis@@
mobility
Pl@@
Verbrechen
omm@@
kamen
drawing
begonnen
happens
eröffnet
valuable
School
Werk
disaster
cross-border
chter
reserve
president
kulturelle
pping
Ambiente
gei@@
hostels
comple@@
info
ences
Bat@@
formen
entlang
Nachfrage
Sand@@
tis
confirmed
largely
creative
Anfragen
marks
inzwischen
sh
Kind
AV@@
recognised
applicable
entertainment
tut
friend
Ohne
Wirtschafts-
führende
sla@@
Netz@@
naturally
Völker
glichen
Where
low-@@
ativ
Rule
manager
yes
diseases
dungs@@
Wahrheit
renewable
Gol@@
Landwirte
Sc@@
Datenbank
album
trac@@
Old
wesentliche
ual
Safety
Dort
Bil@@
ticket
assist
Fla@@
wissenschaftlichen
Mehr@@
CO2
eigenes
zusätzlichen
Gedanken
Essen
opposed
RO
brechen
Wo@@
Absicht
Instead
exclusively
dining
ł@@
A3@@
italienischen
Erwartungen
kurzem
sofern
CS@@
staatliche
personally
tiv@@
row
institutionellen
chain
pose
spring
ständige
zus@@
Ferner
Sach@@
näher
fraud
outdoor
interessiert
43
automatic
reali@@
Zoll@@
stehende
millions
Schaden
Japanese
bus@@
inv@@
Strategy
best@@
haf@@
waters
fähig
mitteln
couple
rasch
Rob@@
angemessen
Ministers
sauna
burden
schönsten
eight
PS@@
west
officials
ernst
USD
LO@@
audi@@
installiert
DA
separ@@
whilst
volume
leisure
impressive
Hau@@
fies
fail
ater@@
verändert
Mittelpunkt
atory
charges
zentralen
heavy
determine
arian
tex@@
entwickelten
Swedish
eye
spo@@
Rat@@
involving
serv@@
constructive
grundlegenden
B-@@
dige
27@@
U.S.
ony
rt
Entwicklungsländern
Menschen@@
legi@@
lay
lab@@
offen@@
Fischerei
inf@@
1991
Weiter@@
load
lon@@
exceptional
Stand@@
Experten
urs
zieht
increases
castle
lle
pieces
1989
natürlichen
smus
insi@@
195@@
schwierigen
Alternative
journey
tur
Dol@@
Good
neuesten
hervorragende
Angriff
ani
Schweden
criticism
Beratung
stellten
Shop
Autom@@
radi@@
offices
Einstellung
zweifellos
41
Schengen
freundlich
gefördert
Berufs@@
2013
Charter
BR@@
prove
amounts
besitzen
post-@@
equally
Emp@@
Alp@@
öffnen
dorf
Verbesserungen
lebens@@
kostet
Badezimmer
Bay
Beispiele
ausgezeichnete
Tagung
perform
sup@@
fein@@
cold
niemals
meist
Spar@@
Foto
HT@@
protecting
decorated
SM@@
Cli@@
Blo@@
Verkauf
laut
bestand
command
zuerst
leaving
kämpfen
Bru@@
George
Englisch
lovely
Europ@@
ght
gener
Normen
fassen
mandate
erheblich
Special
q
getragen
passengers
Dublin
M-@@
Klima
erweitert
ni
5.
Los
sz@@
Over
eten
On@@
bedeuten
speci@@
westlichen
east
lan
offenen
residence
removed
obtained
sätze
Regime
mt
2012
Fenster
fran@@
hit
anlage
aden
doors
unmittelbar
peoples
tickets
atoren
directives
finished
ries
schnelle
prec@@
Stein@@
Komp@@
brief
weather
teilnehmen
11.
kenn@@
organizations
Jan@@
involvement
Kab@@
ando
ky
parks
Wirklichkeit
medium
maschinen
weshalb
Nahen
blu@@
lied
treaty
resi@@
Ladies
erer
strategies
password
Canada
father
happening
bezug
täts@@
höchsten
edge
Bucht
einfachen
entstanden
Hil@@
Lab@@
scht
Strukturen
cc@@
mi
Fac@@
starten
Ant@@
combating
proved
ziele
Agrarpolitik
Rechts
Their
blue
seeing
ok
Unterschied
nahm
ausgezeichneten
kurze
allgemein
depends
München
berechtigt
gas@@
anische
parents
sexual
Park@@
Ausstattung
Kommunikations@@
ú@@
trägen
maintained
fee
DS@@
Boden
blog
Websites
ktes
Van
verlangt
Kra@@
eyes
Bes@@
Waffen
rating
Sou@@
11.@@
kung
remaining
contributions
teilt
räume
Sho@@
ele
tenen
Ab
Lag@@
bemüht
grundlegende
stag@@
Tar@@
produziert
USB
launch
Tourismus
chinesischen
creates
aufzunehmen
tter@@
Ratsvorsitz
define
behalten
Croatia
präsentiert
Dusche
organisiert
fäl@@
colour
Sü@@
ursprünglichen
issued
connections
renovated
Cat@@
abroad
died
ktiven
occasion
balcony
Halb@@
occup@@
aktivieren
gate
nam@@
AND
Empfehlung
communications
musste
bli@@
Dorf
Maschinen
Flash
Action
hall
wa
welt@@
entscheidend
Vision
ought
Kin@@
discharge
precise
falsch
Dem
10-@@
tre
Hostelsclub
vorzu@@
meat
drink
rein
Stellung
gewi@@
stance
preparation
R-@@
Anbieter
ett
Hy@@
weisung
Bestellung
spanischen
King
spec@@
Führungs@@
Basi@@
organized
rapporteurs
zugänglich
two-@@
GNU
Ausgangspunkt
bedeut@@
wünsche
divided
cru@@
jahr
restrictions
Ware
Jedes
Kredit@@
Robert
Revolution
riesigen
Pla@@
kla@@
reserves
requirement
surroundings
assure
vast
4.
resolved
markt@@
uss
behörde
Pflicht
Hafen
pack@@
zig
Kamera
stream
lus@@
dritte
soci@@
repeat
für@@
Überzeugung
doesn
Jahres@@
Problems
umzusetzen
weist
sm
classic
Sat@@
Zentral@@
Get
collective
iler
frie@@
TO@@
messages
Kann
roads
abgelehnt
Kooperation
ix
Airbus
Künstler
debates
atischen
cable
elling
definitely
mus
gratulieren
owners
Oper@@
Massen@@
Fort@@
derartige
Krankheiten
ó
п@@
Immobilien@@
let@@
Projekten
hren
identify
Punkten
Trau@@
lautet
verursacht
USS
contracts
04
übernimmt
regulatory
system@@
Des
Lauf@@
höher
returned
dd@@
regularly
migration
owner
Bulgaria
ain
Luxembourg
är
fehlt
Angst
Verbindungen
bike
betreffenden
schicken
opinions
UN-@@
Steuern
focused
pers
get@@
wirtschaftlicher
Mitgliedschaft
signs
investors
ela
extrem
chn@@
C.
tierten
vorgenommen
characteristics
bild
46
dur@@
Abschnitt
47
Music
wirksam
Boo@@
erlauben
chtung
ham@@
PRO@@
will@@
atten@@
hardware
termin@@
funktionieren
resolutions
systemen
s.
maschine
defend
Geräte
Abkommens
ome
anstatt
etzen
pfen
Lim@@
worse
zogen
Front
liberalisation
schafft
extra@@
Harmonisierung
Gleich@@
driver
Under
vieler
freundliche
Post
verschiedener
Erholung
ended
tag@@
facts
Mac
Alter
Log@@
tene
intend
derung
faster
Hinter@@
Mach@@
erei
bekämpfen
Sy@@
durchzuführen
EF@@
Executive
künftigen
MEPs
vollständige
continent
stände
komme
transportation
Java
properties
verstanden
Veranstaltung
glad
Gebrauch
hundreds
sehe
Farbe
recht@@
realistic
Black
AP@@
involve
conflicts
fordere
carbon
ques
proud
Beweis
Klasse
Ele@@
zuge@@
Eltern
sichere
prakti@@
Marina
main@@
isation
Sit@@
mo
ening
awareness
Will
Mich@@
OM@@
mul@@
topic
ethnic
plätze
ecken
Rumänien
echten
impression
Life
Fähigkeiten
Netz
a.
Ausführungen
conducted
leben@@
Polish
Film@@
umgeben
S.@@
ergriffen
V-@@
weiten
facilitate
mod@@
Gestaltung
joined
Ci@@
heating
Entwicklungsländer
Sauna
isi@@
wachsen
plays
Partnern
starts
suites
Tisch
operational
jährigen
deli@@
gliche
Wird
Verhandlungs@@
seat
sinnvoll
Ag@@
aufgefordert
deals
grow
understood
dynam@@
¤
Procedure
lift
tende
frequently
updated
Organ@@
displayed
Reform@@
Ausnahme
ino@@
Box
ima@@
settings
confirm
Assi@@
dam@@
teren
bezahlen
Gegend
.org
depending
Strukturfonds
license
fizierung
kurzen
wers
IC
Buchung
sole
familiar
Ratspräsidentschaft
Ara@@
nachhaltigen
tigung
performed
wär@@
iten
Konflikt
52
nights
printing
mus@@
Las
enzen
wie@@
ê@@
effectiveness
Änderungsanträgen
zahl@@
.000
schlägt
Ausstellung
Mari@@
firstly
appointed
conc@@
sern
Element
mostly
Sommer@@
Staat@@
bre
Übereinstimmung
klaren
annehmen
gespeichert
Wohl@@
Austausch
9-@@
Programmen
festival
komp@@
u.a.
Hü@@
int
Award
Institution
customs
machte
Nein
eth@@
Vorschlägen
avec
satz@@
beschränkt
submit
frag@@
Thomas
irs
Pass@@
aktiven
formed
ausgeschlossen
ong@@
demanding
Nachrichten
iso@@
ac
Tom@@
somewhat
bridge
clubs
schem
Schwerpunkt
Second
wasser
electricity
Den@@
ises
Messe
View
Hostels
Stre@@
Analy@@
ron
Monetary
eignet
uting
ession
ader
kop@@
answers
lec@@
18.
verbringen
gestellten
Umgang
reiche
aller@@
minority
interior
buch@@
Washington
kno@@
decision-making
früheren
ultimately
Geschäfte
sicht@@
Beitritts@@
universal
notwendige
pass@@
interessante
Fü@@
ce-@@
noted
beglückwünschen
durchführen
sight
Straßen
Dat@@
Real
messen
module
Ausführung
library
cr@@
blood
wan@@
Gentoo
ED
emergency
Drittens
grant
Kilometer
gän@@
teams
avi@@
ließ
Sun@@
Wind@@
Wissenschaft
jahr@@
Führ@@
Fri@@
techniques
Schlafzimmer
wen@@
Hall
ros
ny
gold
tes@@
inflation
meant
Brazil
mä@@
tierte
ish@@
Mensch
Whether
verabschiedet
personnel
SMEs
ministers
träge
een
sodass
geo@@
zulassen
dru@@
drivers
Framework
sk
Maß
visited
ton@@
provider
Arbeitsplätzen
leiten
bern
aria
sn@@
massage
ash
parliaments
zugunsten
hervorheben
Übersetzung
stars
Drittländern
51
Deutschen
füllen
Identi@@
а
iting
welfare
sch-@@
cross
ize
Förder@@
einzigartige
islands
bestätigen
igkeit
lounge
zuständigen
hostel
hö@@
Mexico
kanischen
tically
angemessene
mar
accompanied
verhindert
reported
gehende
Kontakt@@
custom@@
va@@
ausgesprochen
fru@@
ausgesetzt
statistics
chemical
li
studio
prefer
career
Luft
northern
mol@@
breiten
grateful
ail@@
lists
bound
metal
russischen
Prinzipien
Gleichgewicht
theit
ado@@
well@@
Komponenten
follows
Planung
Cyprus
looked
modern@@
or-@@
Ide@@
contrast
vorher
farm
zunehmen
Radio
Besonders
Faktoren
geprüft
Tim@@
subsidies
ased
valley
ont
liefert
Yes
Verringerung
windows
gearbeitet
Rund@@
Werbung
wann
Alles
relaxation
delighted
Firmen@@
passiert
rie@@
satisfied
Beziehung
Miss@@
Euro-@@
nungs@@
invite
wines
druck
famili@@
bom@@
Vereinbarungen
aufnehmen
indicated
Beiträge
woman
corner
deckt
Aut@@
presents
contacts
stored
orial
eastern
Gerichte
Saint
pm
erst@@
Kas@@
rou@@
Church
unmöglich
Außenpolitik
BIP
ordin@@
percent
Optionen
sor
Mur@@
cked
Wein
channels
terrorist
Sonne
Fun@@
Gesellschaften
kli@@
Plenum
Schluss
definiert
arrive
flights
Wol@@
MySQL
verringern
aw@@
sucht
ita
newly
Gemein@@
visiting
Handeln
72
corruption
î@@
Copenhagen
functioning
recommendation
tourists
feed
höheren
Chinas
Lö@@
Einstellungen
entsteht
pped
Les@@
exciting
dence
Jede
Festlegung
actively
judicial
kn@@
vacation
widely
belie@@
scheinen
hot@@
Budapest
match
visa
&apos;ve
Congress
Drogen@@
Plattform
desk
Transport@@
entwurf
welchem
tea
Verb@@
elten
entrance
Gespräche
cosy
declared
Zimmer@@
imposed
Report
firms
pollution
Band
direkten
verleihen
careful
bert
Wünsche
Morgen
eckt
bilateral
dan
d.h.
AK@@
Mün@@
showing
dal
Individu@@
burger
Edition
Währungs@@
einhei@@
serving
schlecht
rock
Zusatz@@
explore
86
decken
Friday
nahmen
fläche
Bemerkungen
inhabitants
gert
afternoon
aged
soli@@
gardens
Prop@@
ungefähr
LE
involves
Brand@@
SS@@
cket
Straf@@
cont@@
verändern
Prague
Neue
Garantie
Act
rechtliche
tlicher
priv@@
gebiete
configuration
2.0
Pet@@
sierte
Ausgabe
ska
eres
demonstrated
erreichbar
gestaltet
speaker
expert
vertre@@
gran@@
turen
psych@@
geboren
winning
Trek
Noch
deck@@
nieder@@
Adobe
ación
dich
Earth
formal
Regierungskonferenz
PO@@
Frei@@
e.@@
Aktion
wollten
pris@@
reifen
News
linien
occur
gerichtet
1st
erleichtern
Perhaps
ils
heritage
ausgeführt
Sony
declaration
cast
eff@@
maintaining
ero
Protection
nahezu
assets
werten
sorgfältig
licht
Minderheiten
gg@@
fördert
intellectual
fashion
competent
Design@@
EG@@
Verteidigung
Zentralbank
aj@@
Funds
Deswegen
Haftung
motor
kürz@@
Ed@@
Zwischen@@
spoken
Fru@@
Ziffer
transition
collaboration
reject
begrüßt
boot
erneu@@
Zer@@
gio
ck-@@
Given
ongoing
betra@@
Stück
Justiz
Soviet
lebt
strict
earth
oriented
Ster@@
conditioning
stellungs@@
functional
Baltic
remote
quarter
heits@@
tennis
hinzufügen
resistance
demonstrate
Kurz@@
desired
Je
expansion
settlement
Sicher@@
plenty
brau@@
top@@
schauen
Verbot
high-quality
Veröffentlichung
Gründung
Sorgen
nat@@
präsentieren
kin@@
theme
12.@@
3,@@
gungs@@
solange
Arab
überzeugen
esch@@
ч@@
Port
ère
fitness
films
channel
bemühen
letztlich
bestimmen
illi@@
EM
Golf@@
categories
rapidly
holen
tos
staat
bestehende
facility
trafficking
Datenschutz@@
iner
hän@@
documentation
aly@@
appearance
Kir@@
usual
Sollten
perfekt
Rom
heutige
è
я
stylish
Marktes
committees
Einbeziehung
Studenten
Poly@@
Or
department
Chancen
Question
generated
Rest
spra@@
passenger
ausschuß
organisationen
gezwungen
frame
ambi@@
recorded
Portuguese
Charta
regarded
PP@@
Sozi@@
Werbe@@
gallery
Mobile
Jun@@
educational
Sei@@
billi@@
Cri@@
15.
artist
concluded
basi@@
verehrte
possibly
gewal@@
eing
klar@@
raw
Umfeld
Skype
früh@@
Insbesondere
Ferien@@
ending
geltenden
phrase
vil@@
KMU
justified
essen@@
Bewer@@
sharing
Sollte
swe@@
betrieben
Description
dokum@@
Hostel
glob@@
owned
Marketing
with@@
glaub@@
awarded
conf@@
Applause
exit
zeichn@@
containing
Sim@@
cutting
bottom
einrichtungen
Dru@@
mas
Flo@@
Mobilität
lösung
standen
foundation
aches
moral
auer
ž@@
bet
James
long-@@
argument
replaced
erinnert
apart
G-@@
schlag
hair
vorlegen
Software@@
54
Balkon
Preisen
dependent
britische
mix
and-@@
Obje@@
lasting
ös@@
beraten
sierten
dürfte
Webseiten
emerging
individuelle
Zielen
Tou@@
Mö@@
ond
planet
selbst@@
lokale
ferner
bereitet
Struktur@@
towns
mother
ade@@
Tab@@
Fein@@
sil@@
Eurozone
Plus
Identität
lauf
liegenden
treiben
IV
Town
isen
zun@@
flows
å@@
Untersuchungen
tierung
wed
Nah@@
zieh@@
installieren
Vorgehen
handel
saving
jegliche
respected
count
з@@
copyright
assume
oc@@
overcome
Computer@@
ap
Hungary
Versionen
CE@@
tested
def@@
Quar@@
Kurs
het
cian
Waren@@
Freiheiten
abgestimmt
minorities
routes
igung
credibility
tackle
Acc@@
este
nit@@
König@@
verkaufen
App@@
tischer
spectacular
TO
eds
TS
Power
IT-@@
verdient
Mol@@
Selbstverständlich
spann@@
Northern
Puerto
Vorschlags
entes
benen
crimes
erfolgreiche
partly
sich@@
wohnen
ham
professionals
Training
heat
determination
Update
verhalten
Wachstums@@
MB
satisfaction
organisieren
prozesses
flat
Glas@@
Cha@@
einig
Fle@@
stronger
übrigens
Belgium
respon@@
ersetzt
acted
Fischer
vorschriften
Newsletter
Women
dance
puts
absch@@
nissen
Kräfte
tigt
entscheidende
Gest@@
Werke
ups
programms
Bars
größer
direkte
Wir@@
sie@@
jün@@
individuellen
Signal
Konsens
Ram@@
Gerichtshof
weite
transactions
occasions
verurteilt
oni
Arbeitsmarkt
su
verkauft
vorhandenen
yed
scheme
Politiken
entwickelte
marquis
wat@@
kri@@
lik@@
Mitarbeitern
stischen
ney
beziehungen
isch-@@
Asien
zentral
dens
wand@@
immigrants
Verbreitung
sprachen
Studien
ency
einheitlichen
ds@@
manufacturer
alization
Network
reduzieren
correctly
Internet-@@
Oder
beruht
fans
geräte
els@@
ora
reform@@
replace
rali@@
fon@@
gewährt
Pact
Parlament@@
Within
Fel@@
din
6.
Amendments
ards
Tour@@
inst@@
enjoyed
erhebliche
äußern
tables
weekend
cash
Kli@@
Zwecke
begrenzt
vorstellen
Anschluss
non
Well
leb@@
Show
arrived
bekannte
strategischen
Eu@@
bekämpfung
Besorgnis
grundsätzlich
sicheren
gerät
Desk
EX@@
Krankheit
aussch@@
Nachricht
CE
still@@
gehenden
genannte
derer
housing
Wi-Fi
lob@@
Space
inklusive
liberal
moti@@
Israeli
slightly
kg
ci
Food
miles
Canon
sending
ico
corresponding
quali@@
rental
adults
Städten
ental
Vorstellung
VI@@
digt
Don
Following
drinks
Champ@@
Einwanderung
mach@@
legitimate
Rezeption
peti@@
constitutional
tives
Wirk@@
Page
Cu@@
tan
EP@@
Gewicht
Sein
räger
mö@@
rap@@
Kapitel
industri@@
â@@
herr@@
solid
direc@@
kam@@
component
Freunden
angebot
beschäftigen
Flü@@
einfacher
Hohen
ruhig
Tan@@
genügend
losses
ski@@
informationen
p-@@
ées
youth
kungen
shares
Bedrohung
Extre@@
·
distributed
nunmehr
index
raten
ace
drücken
Medien@@
suppliers
Taiwan
buch
J
funktion@@
aum
inde@@
banking
providers
cuts
subsidiarity
sensible
Schulen
updates
angegebenen
versorgung
kel@@
Videos
steuer@@
tun@@
offiziellen
division
destruction
vin@@
OF
mächti@@
orts
Dach@@
cab@@
magnificent
cial
Bemerkung
rising
constitution
Zone
jenen
wrote
Hier@@
sprach@@
identified
läßt
194@@
EB@@
Kap@@
effektiv
Asyl@@
aner
denden
Malta
egal
ais
taxation
Erzeugnisse
Fal@@
hängen
Benutzer@@
Systemen
Denk@@
7.
Pack@@
Without
üb@@
Atlantic
zusammenarbeiten
addresses
maritime
ishing
dul@@
aussprechen
Selbst
elsewhere
globalisation
führten
sprach
behaviour
interpretation
gebieten
werken
jo
Son@@
considering
kompet@@
fas@@
eventually
Auge
gesellschaften
vorbereitet
Wohnung
NI
Europol
außerordentlich
disp@@
fantas@@
gangs
französische
exception
wege
Ton@@
leistung
kel
tered
wear
AN
sin@@
sü@@
VAT
verstärken
filter
Py@@
secret
gere
Marke
Ah@@
ensures
Zusätzlich
herrscht
erfolgreichen
gewonnen
milk
Termin@@
electric
AD
verbinden
exports
Kauf
71
thy
Fon@@
Schwei@@
par
aufs
etes
ump@@
battle
domain
uss@@
Sektoren
lers
oning
ented
Gran
modell
68
Kyoto
straight
traditionelle
Kontrollen
Structural
Hungarian
sit
preparing
Tau@@
vic@@
tively
SV
but@@
virus
Gesam@@
encouraging
extraordinary
Neben@@
Sunday
jener
Viertel
pot
erhielt
Herz@@
unverzüglich
fs@@
sprech@@
schrift
Mission
Valley
erlebt
wissenschaftliche
generate
decisive
arti@@
poly@@
Blog
53
proposes
Thirdly
se-@@
courts
17.
slow
eingereicht
irgend@@
wiederholen
Eisenbahn@@
Vel@@
aux
verantwortungs@@
politi@@
56
Wohlstand
drei@@
hear@@
liked
gste
motor@@
ologi@@
Balkans
scene
Kop@@
Islam
roman@@
deficit
vulnerable
Charles
Zy@@
TI@@
Salzburg
disk
mali@@
dischen
filled
label
asser@@
citizen
Bereitstellung
army
Year
ständen
Einkommen
prü@@
schm@@
por
didn
66
Erstellung
everyday
Vorsitz
op
Like
enhance
vieles
Stimm@@
lock
topics
entscheidender
schu@@
vely
beigetragen
surely
fügt
Beschluss
succ@@
beschrieben
Lieferung
Schwar@@
Dre@@
bonus
transpor@@
rum
Cer@@
packaging
plenary
complicated
tief@@
substance
großem
portal
sugar
luxurious
university
UC@@
Pakete
Touristen
supplies
Roh@@
hen@@
Verk@@
selling
finanziert
spoke
Spaß
et-@@
anz
Einheit
accurate
lessons
WLAN
Lok@@
Fuß@@
organ@@
virtual
invest
Client
kleines
ähnlich
ulate
inclusion
ites
essi@@
Schw@@
Nos
kts
examine
Ungarn
§
gefallen
Exchange
Theater
20-@@
directed
Männern
patent
sitz
connect
Assembly
bislang
8.
proven
fahrer
verst@@
wunderschönen
Katastrophe
kräfte
Blan@@
Schlussfolgerungen
revi@@
zustellen
selben
Main
zeichnen
specified
elektronischen
bestimmter
jährige
CON@@
excessive
Gran@@
Thursday
Garden
inger
therapy
Mangel
dende
Cra@@
ride
beteiligen
videos
theory
enabled
derte
Staates
gestattet
break@@
intern@@
Ansichten
Person@@
Dienstleistungs@@
impose
conver@@
suffer
verkehrs@@
vermitteln
integriert
Live
heben
Rap@@
concepts
mes@@
mot@@
Pul@@
16.
stolz
itäts@@
wohl@@
renowned
erzeugt
leistungen
ungser@@
absence
deposit
fly
zahl
einzigartigen
alized
kraft@@
teilung
forests
Genehmigung
Brasilien
ping
description
adopting
shipping
wechsel
dt
asses
voraus@@
Sicherung
diplom@@
hundred
ahn@@
Einwohner
viol@@
greatly
gut@@
Kontext
ag
Ep@@
Digital
Mail@@
A.
savings
Polizei
directory
Zwei
Vater
menschliche
unden
proceed
schwer@@
BMW
ums@@
verbindet
arm@@
drug
tei@@
abuse
solches
Rechtsgrundlage
Konto
tin@@
Alt@@
ville
traditions
anwesend
centuries
hervor
ere@@
foot@@
handle
investieren
finish
carrying
angegeben
geschichte
Besides
applying
lad@@
departure
layer
heim@@
wonder
suggestions
arischen
gli@@
gained
Bou@@
Law
voluntary
Rein@@
Grad
Datei@@
akt
Modelle
schla@@
solely
proposing
eit
alities
häuser
Rus@@
raising
countryside
mischen
equi@@
villages
druck@@
subjects
Konsequenzen
kette
Games
Guests
BO@@
ordinary
Lounge
Image
Rahmen@@
heim
absor@@
aqu@@
vent@@
lined
Mail
Gold@@
formation
chem@@
COM
Publi@@
Rich@@
Bern@@
Schiff@@
Provinz
Eli@@
trial
paying
duties
Pin@@
fern@@
supplier
AC
Cup
colours
Darum
sische
Gam@@
hör@@
Vier@@
Boden@@
eingehalten
Gerät
wave
klu@@
artistic
Dauer
Entscheidungs@@
asing
wirk@@
29@@
Nummer
Fax
bereichen
trend
representation
Hamas
gh
philosophy
59
UM@@
freut
gewissen
Wo
Landes@@
museums
skiing
CS
trips
ami
lieb@@
resul@@
geboten
Len@@
Budget
Sig@@
thousand
fuer
beantworten
appeared
treat
Positionen
impor@@
fli@@
Boot@@
individuell
Prozesse
Tools
pursue
grös@@
consent
Beschlüsse
Trop@@
nevertheless
Holiday
ologischen
aut@@
förder@@
Betrag
aut
weitgehend
bereitgestellt
toler@@
della
comparison
manche
Kroatien
Arbeit@@
promised
trag
Maastricht
ator@@
internen
Interessen@@
mati@@
reservations
receiving
Wählen
liefer@@
beobachten
100@@
Hot@@
auto@@
Glaubwürdigkeit
bedeutende
Set
Elektro@@
wert@@
input
inmitten
invited
Egypt
Tel@@
sheet
ähnliche
pression
Having
mussten
unity
wiederholt
obje@@
Rö@@
40@@
mechan@@
enswert
difficulty
sers
Schwer@@
ativ@@
tobacco
schie@@
yo@@
zuständig
ziel@@
root
Tool
punkte
Überlegungen
vorge@@
effizient
wechsel@@
vorher@@
award
bekommt
portfolio
-based
Ol@@
reli@@
bergen
dienst@@
lte
New@@
non@@
nde
ests
Parkplatz
Völker@@
Kopf
Kulturen
ausgezeichnet
Strom@@
mittleren
sozialer
hr
uted
gebildet
entspannen
Trotzdem
sichts@@
Islamic
Ganz
anbelangt
Kontakte
sus
pools
92
Wur@@
erstmals
Legal
smo@@
б@@
überprüft
Quality
Zivilgesellschaft
Reduzierung
suggested
Bulgarien
Num@@
Gegenstand
pes
wirtschafts@@
SA
Hom@@
mid-@@
Suiten
langfristige
58
Gast
ring@@
laufenden
St
Situated
zäh@@
Castle
cle
probleme
prosperity
einbezogen
UT@@
pure
elec@@
Korruption
ema
sicherung
Sum@@
niveau
stages
ursprünglich
Cur@@
Agriculture
dene
steh@@
Playa
langsam
Menü
relative
disabled
Monday
productivity
Mrd.
wach@@
Gehminuten
pel@@
periods
fertig
arguments
optimale
Glück
eat
Schlüssel
Browser
Anlass
quar@@
Professor
Mr.
Geschmack
welcoming
oper@@
delicious
well-known
Mont@@
Körper@@
necessarily
ization
depend
Blu@@
reduziert
attempts
schwei@@
GN@@
steuern
moder@@
ading
CF@@
Gefahren
patient
confirmation
Budgets
Based
ols
akti@@
arbeits@@
spartner
Americans
them@@
wirtschaftlich
weak
Vorhaben
ov
Energien
sounds
cleaning
angesehen
symbol
kes@@
referendum
gerufen
wis@@
Christ@@
AM
richtet
a.@@
Kollegin
fang
import
Stoffe
leaves
pä@@
hill
chtet
religion
Politik@@
dauert
ET
Dafür
ail
Gewährleistung
kunden
Strasbourg
Konzer@@
tier@@
passen
addi@@
Eigentum
verteilt
utz@@
Akti@@
Offen@@
setz@@
shot
esse
Sec@@
ausgerichtet
pt
Lebensmittel
united
verein@@
AR
Finanzierungs@@
Gut@@
stil@@
stern
auftreten
politically
DO@@
homes
steigt
farming
ano@@
enabling
villa
Mes@@
overview
letztendlich
EA
Tip
Aufsichts@@
dream
10.
betreiben
imports
Key@@
bank@@
Apple
projekte
Pil@@
täglichen
reit@@
permitted
lev@@
unds
istic
oria
effe@@
Tem@@
©
eil
ura
lobby
satisfactory
Tele@@
Wes@@
änden
behaupten
schnell@@
sau@@
Place
ausgegeben
entschlossen
inos
gründen
allocated
regul@@
Schiffe
estimated
Bahn@@
Verlust
constitute
Gerade
bach
stä@@
societies
verkehrs
zukünftigen
Tat@@
Wirtschaftswachstum
verfügbaren
unforgettable
ersetzen
4,@@
rare
Kriegs@@
Master
stab@@
Federation
supposed
succeed
ration@@
killed
Bul@@
Pau@@
Bade@@
fü@@
ign@@
ling@@
ori
88
significance
Facilities
Programm@@
publication
hierbei
cooperate
welcomed
vierung
Through
camp@@
kontaktieren
Pon@@
XP
instructions
künftige
Gaza
continuous
gedacht
gnis
Fahrzeuge
sah
upper
Erfüllung
recognized
inten@@
wireless
gelingt
üt@@
Entlastung
zentren
kontrolle
Praktiken
Personal@@
einzusetzen
Telefon@@
refer@@
Sterne
Wald@@
versichern
militärischen
obliged
beendet
visu@@
alt@@
stimm@@
Belgien
unterscheiden
Gericht
cell@@
speichern
Asian
größeres
clean@@
entspann@@
Genießen
fourth
ame@@
Thailand
Übergangs@@
functionality
Les
ECB
mangel@@
verteidigen
ital
iPhone
individu@@
sparen
angepasst
fir@@
Cent@@
konfrontiert
altern@@
trieben
tree
Kommissions@@
specialist
toward
Who
klein@@
programming
militärische
Schiff
ès
9.
cos
breit@@
h-@@
destroyed
konzentriert
й
Prozesses
spiele
struktur
ute
initi@@
gendes
missing
tionally
allzu
bis@@
Pun@@
geschäf@@
Rol@@
offene
Freitag
legte
Verfassungs@@
refers
hardly
cells
contributed
ario
12.
Ausflüge
klein
Berliner
Anstieg
illu@@
actors
Point
Islands
leu@@
stör@@
Gerechtigkeit
gue
aktiviert
richtung
Finland
remained
cot@@
Prüf@@
Posi@@
ра@@
Verletzung
fundament@@
bares
prime
Gemeinde
lived
interessant
song
Refer@@
welcomes
organic
anc@@
covering
sections
griffen
Mei@@
grenzen
fähigen
leh@@
spa@@
inner
pen
ter-@@
Frühstücksbuffet
unabhängigen
hier@@
ee@@
Guide
Perspektive
Rem@@
modules
characters
negotiating
67
Vene@@
Play@@
Mut
dau@@
Nachbar@@
designs
Australia
Drei@@
armed
57
füll@@
gelegenen
bestellen
HO@@
Feld
Amt
harmonisation
Sachen
ose
lunch
Kla@@
fulfil
Übernachtung
Verarbeitung
13.
rieren
dere
hospitality
luss
Runde
brachte
gelassen
Standort
waffen
supervision
prev@@
trends
suffered
Situationen
Inform@@
ssen@@
preventing
Nachbarn
hung
Family
ald
revision
Betten
hi
Next
Stad@@
Flüchtlinge
Schweizer
viertel
Terror@@
notes
wettbewerbs@@
euros
Zeitung
premi@@
Institu@@
unterzeichnet
institutionelle
amenities
thin
herunterladen
Krisen@@
fees
Wirtschaf@@
Gir@@
classes
explained
voc@@
Wechsel@@
mitteilen
FT@@
Organe
unterstreichen
gemeinschaftlichen
anim@@
aming
Weiteren
deswegen
ans@@
songs
bisherigen
adap@@
ehen
illegalen
sichtbar
Anti-@@
strategische
fanden
productive
adverti@@
äh@@
ford
forthcoming
Pläne
Märkten
Education
none
reaching
komple@@
lieren
indicate
blocks
uter
kern
NGOs
könnt
musical
thermal
Tätigkeiten
vorzulegen
mitglieder
legally
Willkommen
Eink@@
barriers
ô@@
betreffend
kund@@
freedoms
vollständigen
fax
lieber
wirksame
spreche
ey@@
arise
Sind
abstimmen
Tei@@
typ@@
gram@@
sphere
anschließend
Bis@@
Should
turning
belief
Finanzkrise
introducing
everybody
empfangen
Director
zukünftige
parameters
cour@@
Schon
restricted
hochwertige
doub@@
saved
Grünen
computers
Rent@@
conventional
Fehler@@
angebracht
pp
Donnerstag
Transpor@@
ologische
gap
Grün@@
Widerspruch
originally
natürliche
aire
unterliegen
HTML
itali@@
tari@@
grosse
Wür@@
sustainability
stocks
gewis@@
verwaltung
verdienen
roll@@
labelling
ergibt
archi@@
driven
günsti@@
vorgeschlagene
Project
movie
Regierungschefs
wellness
L-@@
umfangreiche
Veränderung
erzeu@@
Abendessen
Auditors
Vorsch@@
Don@@
football
hart
male
coun@@
geprägt
Est@@
sses
tory
Redner
Hab@@
movements
enhanced
AF@@
Venice
enterprise
wild
resource
Ankunft
firmly
Schloss
elte
severe
vorgesehenen
Andere
stück
Saturday
combine
PD@@
praktische
reflected
hydro@@
Schwe@@
fassung
transmission
langfristig
showed
dio@@
realise
Geschäft
fairly
alisierten
sauber
halb
Sau@@
modi@@
Institut
Zuständigkeit
unabhängige
Ausmaß
drop
fährt
VER@@
Zug
effiziente
materi@@
anzuzeigen
errors
Hö@@
Single
ffe
Stimmen
Internationale
Stability
hingegen
vertrag
behoben
Mallorca
remarks
beings
küh@@
anhand
fuhr
itä@@
pit@@
Ker@@
Top@@
selten
bed@@
Mah@@
Ablehnung
enge
anschließen
proceedings
Kanada
Leg@@
dering
suit
ras
Weg@@
Cookies
gemeinschaft
nutz@@
Komm@@
Vietnam
reflects
sing@@
tot@@
gor@@
ungs
Does
14.
AIDS
Piazza
imagine
considerably
Gor@@
wachsenden
strukturi@@
Fir@@
Serbia
vorbei
geraten
gesp@@
adapted
schule
budgets
Socialist
boards
zeug
gebeten
kro@@
vorschlag
lischen
ließen
SL@@
Rio
director
gesetz@@
hearing
Ga@@
Bot@@
Corporate
amazing
holds
cancer
Quellen
amt
Armee
collected
lösungen
Vista
ed-@@
ells
bat@@
obstacles
grade
Vorlage
tent@@
stieg
gene@@
thi@@
Regional
whereas
safeguard
Büro
edition
normalerweise
nd
Last@@
Konferenz@@
universities
olog@@
verti@@
Plas@@
parliament
án
ume
um-@@
passt
täten
sab@@
Zivil@@
CHF
gewähren
Leitung
wahren
Anwendungs@@
Respekt
sogenannten
endorse
Reisen
Roll@@
tracks
BI@@
Captain
elli@@
ete
coordinated
adapt
Stockholm
sammeln
Album
körper@@
tol@@
fikation
Bab@@
design@@
Berg
Ari@@
pressed
ih@@
märkte
faith
female
freundlichen
hervorragenden
mente
super
Kranken@@
fügen
regardless
acceptance
züge
romantic
Christmas
auff@@
ato@@
tert
Sul@@
Form@@
sach@@
dankbar
any@@
Ebenen
dargestellt
gemä@@
Cho@@
secre@@
Geneva
Freizügigkeit
Get@@
schnellen
grad
a.m.
Gerichts@@
tail@@
viert
normalen
Mutter@@
fast@@
Börse
investigation
greift
generations
chair
sights
fähi@@
63
ull
Sohn
Staatsan@@
decade
dry
Prote@@
0s
consulting
Partner@@
sw@@
gewünschten
anner
worthy
Road
Führer
Heizung
enthaltenen
servers
letters
birth
hohem
König
wür@@
Abhängigkeit
dark
Meines
ux
sierungs@@
vereinbart
Rückkehr
vessels
arbeitete
vorliegende
federal
konferenz
Indian
öffentlich
besonderer
ange
exploitation
82
sty@@
undoubtedly
verboten
Deutsch
tual
Aktionsplan
sischer
80@@
Abschaffung
Г
alem
nec@@
till
refle@@
shed
zahlung
managing
Forsch@@
Jugend@@
reaction
Urheber@@
methoden
Wochenende
Fan@@
amed
equivalent
flächen
eta
SW@@
pretty
altet
ollen
Erinnerung
sought
heißen
disasters
kontrollieren
Volkes
Mini@@
produzieren
Reservierung
tief
politisches
ichte
oned
compact
ished
ease
Pr@@
forschung
feu@@
dev@@
Entspannung
bereiten
dialog
gere@@
travelling
Haushaltsplan
Ale@@
xen
ernsthaft
Regel@@
iniert
erkannt
Lizenz
Kong
Hong
erfreut
ordered
Teams
ktoren
chti@@
Gang
griechischen
fleet
dict@@
geplant
sees
iled
internationally
lic
bende
Erst
printed
Stuttgart
Typ@@
checks
guided
Maschine
Sin@@
gal@@
nütz@@
ill
zuzu@@
jetzigen
krise
isti@@
Befugnisse
Geschwindigkeit
Culture
Beteiligten
automati@@
Konflikte
Lang@@
step@@
Customer
beru@@
metro
TE
dings
Sammlung
joining
fix
Dritten
atz
Equ@@
Orte
Jahrzehnten
Zahlungen
ind
EP
supplied
decline
restored
grenz@@
sin
rechnen
Marken
zog
Kirk
ji
nungen
underground
U-@@
cen@@
Fahrt
externen
Georgia
gefragt
Got@@
bol@@
bestimmungen
io
courage
inner@@
roots
hervorgehoben
neg@@
bemerk@@
antworten
Beide
sex
Quelle
protocol
ätze
komplette
script
Check
Dam@@
umzu@@
MA
Binnenmarktes
brow@@
absol@@
dent
Planeten
Symp@@
mouth
Tibet
überaus
Tür@@
Ali@@
Gleichstellung
vierten
seri@@
Administration
Top
einheitliche
Seri@@
Blut@@
Berichten
Mem@@
exclusion
ungsverfahren
vieren
Cy@@
Investitions@@
aufgebaut
us-@@
NO@@
cement
vali@@
abilities
nummer
sound@@
anywhere
believes
reliability
mess@@
mittlerweile
62
nbsp
pet@@
excluded
learned
cultures
erfordern
Tourism
i-@@
echn@@
mere
schweren
Up
profession@@
Exper@@
bezahlt
dische
trav@@
satisfy
Euch
Debian-@@
Prozess@@
wald
tier
Geheim@@
Handels
graphic
Tor
Kreditkarte
letz@@
entgegen
nicht@@
penalty
leichter
play@@
Friendly
steten
slo@@
Kü@@
commun@@
Blue
Sitz@@
unterschiedlich
deep@@
erwähnen
Großteil
Dreh@@
Schönheit
Meeting
hil@@
concentrate
tiz@@
beschränken
regel@@
besu@@
klassischen
shift
Foto@@
proc@@
mini@@
CD@@
restructuring
spi@@
Vorausschau
ökonomischen
zugrunde
Mutter
entdeckt
Bin@@
subsequent
diversi@@
oms
sse@@
Darstellung
floors
of-@@
überein
garten
transferred
violations
Allianz
niedri@@
korrekt
bedanken
missions
komfortable
emplo@@
processed
Opposition
gehei@@
analyse
untersucht
letzter
GT@@
clause
justi@@
existiert
Ursachen
humanitäre
но@@
reck@@
mine
ACP
nachdrücklich
Tal
77
steam
zurückzuführen
perfekte
bo
Location
leitung
umsetzen
sovereignty
gestaltung
ouse
Alexander
remin@@
hierfür
formats
Schlaf@@
dignity
Diam@@
Produ@@
Tausende
Hauptbahnhof
Information@@
stammt
non-smoking
anz@@
Tages
Notes
Verteilung
everywhere
dating
69
aside
heit@@
GU@@
groß@@
factory
assembly
eingegangen
LA
ories
counter
irre@@
hast
senken
ure@@
Ret@@
restore
Mir
Waffen@@
Optim@@
gestal@@
Casa
berichten
ко@@
89
Faktor
Der@@
umfassend
Schla@@
900
vice
magazine
kir@@
festzulegen
Kriminalität
Küsten@@
Red@@
Investoren
Agenturen
Gemeinsame
disc@@
kurs
rol
Pati@@
Eingang
Branche
Commissioners
melden
73
reserved
Ori@@
geleitet
Lizenz@@
Spielen
zeugen
einzuführen
faces
overlooking
prof@@
grossen
SD@@
Il
deut@@
Academy
produces
plastic
Balkan
meal
Rechten
enorme
greif@@
targeted
Museen
assess
Emissionen
sichti@@
dead
Nahrungsmittel@@
Passwort
approve
alisieren
cell
Nero
Generationen
Sol
panel
hoffentlich
Vertrages
gehör@@
Hat
pon@@
agi@@
Lat@@
listings
Sudan
tum
kamp@@
Arbeitsplatz
shadow
picturesque
musi@@
nine
accident
lädt
stan
student
strengthened
gering
deeply
miss
Will@@
Früh@@
undertaken
ae@@
treatments
selb@@
ten-@@
nes
kernel
alisiert
ager
Würde
Bag@@
EZB
Stock
Staff
wonach
Port@@
sand
meter
strasse
operates
Parameter
Bereitschaft
frühen
besorgt
Haut
bright
cool
graph@@
aling
Opera
erweitern
Koh@@
ilit@@
Musi@@
Mark
promise
worst
phones
A5-0@@
Somit
geeignete
seu@@
teils
begleitet
fut@@
offizielle
festgelegten
gaben
richtlinie
H-0@@
Besitz@@
Papier
ners
dei
Tag@@
diert
Schön@@
Be
Fernsehen
gek@@
Haben
Innenstadt
Ange@@
Rechtsstaatlichkeit
Would
intelligent
normally
Fr@@
steigern
sco@@
Events
fishermen
Pack
SCH@@
Sonn@@
93
merk@@
ähr@@
reconstruction
digitalen
eingeb@@
mem@@
ote
executive
Dies@@
IMF
bour@@
panoramic
angewendet
SE
stores
gements
stant
vornehmen
Deb@@
Anwender
1980
max
fähige
unfair
stattfindet
entering
Parkplätze
dness
würdig
luss@@
tionary
einfach@@
collec@@
gation
usage
hiking
freely
diskrimin@@
kap@@
Handlungs@@
Speisen
Among
activ@@
pressing
ison
geäußert
ausgaben
mid@@
Stärke
festen
Registrierung
izi@@
province
Spezial@@
Berich@@
Öffnung
posed
anniversary
irischen
stran@@
Bibliothek
61
linken
eingestellt
Bearbeitung
sende
Reserve
pur@@
illustr@@
bathrooms
ütz@@
verwende
presenting
Joseph
trat
superior
Kontinent
individually
Volksgesundheit
voraus
Tests
solar
ARE
Vari@@
Messe@@
qualitativ
Verlauf
Industry
Miß@@
ebene
Spitzen@@
ativer
-up
Umwel@@
gnissen
Frist
geber
dated
Strecke
SC@@
switch
empfohlen
Lern@@
peri@@
threats
türkischen
Amerikaner
prospects
ares
Denmark
tac@@
fangen
casino
gin@@
profits
engines
Niederlanden
briefly
keinem
revolution
Content
beenden
Dritte
Strand@@
manufacture
verweisen
imperi@@
collect
verfol@@
blei@@
taxi
konstru@@
popul@@
highlights
CAP
dollar
30.
Währungsunion
lehr@@
Ferienwohnung
prozesse
nützlich
attached
funded
Kompetenz
V.
reputation
Golden
UL@@
gement
Consumer
Motor
grown
Überblick
labor
Cou@@
neighbouring
liable
Dass
leich@@
Herz
selber
adds
poses
Minute
fers
acknowledge
Wellness
Ama@@
ecological
chern
Wandel
akzep@@
Kategorien
bewältigen
Tel
Kapital
cious
eur@@
wage
adding
belong
pap@@
Intel@@
94
Gelder
langer
5,@@
herrlichen
Up@@
räumen
Jugend
teaching
gestärkt
gelesen
Consequently
mented
Wirtschaftskrise
dlicher
low@@
genaue
gesetzlichen
ehrt
strah@@
sleep
antes
öff@@
aster
gam@@
sä@@
emen
flug@@
alu@@
engaged
Kampagne
überwinden
60@@
operated
varied
gewer@@
stunning
sichergestellt
Umweltschutz
zerstört
ati
struggle
lichsten
begins
synchron@@
Öl
Herbst
Span@@
Licht@@
efficiently
gegenwärtige
Residence
einf@@
BSE
erklär@@
Andererseits
festi@@
folge
kus@@
Autobahn
camp
ats@@
hü@@
gkeiten
stuff
lü@@
schä@@
Richard
three-@@
loser
án@@
sible
meets
Zürich
CDs
ergänzt
eria
Maschinen@@
ziger
Bestimmung
liert
unmittelbarer
Zahlung
Länge
kehr@@
Bord
äm@@
eo
heading
Cel@@
ø@@
tain@@
struc@@
rad
genes
froh
Vereinfachung
twice
Auftrags@@
past@@
Protocol
Sky@@
proportion
integrierten
cla@@
immer@@
Florenz
antly
Instruments
Es@@
Cab@@
cin@@
journ@@
behält
Steuerung
itable
Potenzial
hes
Ke@@
kennt
mile
eigener
riding
Micro@@
stärkere
Debatten
CD-@@
wort
Bour@@
surprise
recording
eurozone
makers
combines
speciali@@
glo@@
78
teste
iel
Dokumenten
Mod@@
Using
76
eingesch@@
graphics
ř@@
OK
Dro@@
sufficiently
Bed
gleichermaßen
mistake
Hohe
aring
Text@@
zeichnungen
Montag
Kern
ctions
kontrolliert
Belgian
ent-@@
M.
ial
bs@@
frem@@
program@@
Autos
pillar
lieben
Kaffee
prop@@
Freund
lier
DC
Vir@@
Resolution
zukommen
Miet@@
CN@@
visual
Tsch@@
pace
Pot@@
rechtzeitig
Wesentlichen
о
territorial
rad@@
Š@@
Nat@@
DR@@
Berichterstatters
langfristigen
Erhaltung
nar@@
kilometres
19th
heads
Satelli@@
urgently
Ve@@
Beseitigung
Sound
Society
phenomenon
Saf@@
seats
angemessenen
altung
zige
warning
wendet
push
sophisticated
Verein@@
Chem@@
codes
rolle
Have
occurred
BC
n-@@
ho
Gau@@
Ven@@
scientists
cit@@
Presse
anzubieten
fro@@
c-@@
spite
relates
ht
legitim@@
EU-Mitgliedstaaten
acqu@@
shuttle
yard
stration
meister
klassi@@
diplomatic
iling
Suites
negativen
medicine
arising
such@@
logical
schnit@@
candidates
shel@@
2nd
PA
Saison
convenience
native
Renn@@
bedeutenden
Tür
Polizei@@
Zw@@
Kandidaten
Phili@@
Schn@@
Email
Science
kanische
derzeitige
gia
binden
inspired
Detail
Black@@
Oberfläche
typischen
garage
erzeugen
ean
zia
Conc@@
mag@@
feet
Schulden
unentgeltlich
specialists
effektive
ktor
Mechanismen
Afri@@
Parlamente
Projekts
lis
zü@@
College
Straßburg
stammen
acquired
Bedien@@
causing
damages
pot@@
lien
Gewinn@@
spä@@
execution
Rh@@
virtually
bly
innov@@
meals
illa
UNO
Benutzung
besucht
sorge
seconds
anzeigen
FA@@
iens
records
zwingen
mögen
Lit@@
gesam@@
Ombudsman
appropriations
schö@@
ahn
concert
ín
Pension
inn
upgrade
Archi@@
Luxemburg
lenken
Ok@@
sit@@
stem
angenehmen
bot
sand@@
Area
uniform
var@@
za@@
recognize
oldest
Children
habit@@
intends
ght@@
ici@@
Versorgung
fällig
constructed
Dingen
Bereits
reis@@
vi
в
rechtlich
honour
projec@@
Lux@@
Bir@@
gültig
betrieb
geographical
choices
highlighted
integrate
Personen@@
Appartements
vis
fing
boost
ı@@
Explorer
Berge
Lastly
Professional
rum@@
Verkehr@@
ão
Bedürfnissen
Further
marine
erstaun@@
operator
pick
resulted
stoßen
bility
Kopenhagen
GE
succeeded
engage
construc@@
rable
oring
ily
polis
74
sichtlich
iges
Tonnen
bewahren
ländliche
untersuchen
angenehm
außen
eld
essentially
EV@@
ases
aktuell
producer
Direkt@@
wartet
Religion
Patent@@
pas
Islam@@
hidden
referring
strictly
entscheidenden
consequence
91
free@@
Fluss
gradually
Innovationen
dres@@
coherent
г@@
checked
Mart@@
vention
Bol@@
boats
tile
prin@@
urlaub
knapp
Sobald
Audi@@
errichtet
hierzu
Gem@@
kümmern
Leit@@
realer
Bom@@
konkret
ua
Av@@
SAP
Sierra
wertung
350
dauer
bi
Eur@@
classical
zy
kontrolli@@
champ@@
Parti@@
Recht@@
Mass@@
tö@@
manual
CL@@
500@@
widespread
hou@@
gehörigen
radik@@
Augenblick
--@@
vorgestellt
IV@@
Nikon
Stamm@@
Ägypten
Saddam
reporting
Eng@@
Sonntag
я@@
losigkeit
beinhalten
narrow
entsp@@
4-star
than@@
affects
explanation
incorporated
berechnet
restri@@
ologisch
auffordern
müsste
Hinweise
Lesen
bü@@
vos
verse
denjenigen
passing
Hum@@
bay
sitzen
Regulierung
finanzieren
tant
Kle@@
Häuser
Imp@@
lian
pflich@@
Differ@@
Tauch@@
überlassen
Hän@@
Senkung
taining
zel@@
Dialogs
troops
ament
Sup@@
aviation
Drittel
81
Ty@@
Nokia
spezialisiert
Staats-
Common
eless
schw@@
grünen
lla
Car
favourable
praktischen
maxim@@
colors
atom@@
forth
produkten
Fläche
gefähr@@
revenue
erklärte
prote@@
Intern@@
angeb@@
ington
teachers
rot@@
Schreiben
fot@@
Besuchen
human@@
Zusammenhalt
gross
tnissen
hop
klasse
Vie@@
Small
Ausbildungs@@
gekennzeichnet
snow
Stock@@
kämp@@
dation
Warcraft
gastronom@@
var
soil
Asi@@
ausgewählt
wechseln
Hindernisse
stories
alcohol
contrac@@
kolle@@
sement
victory
EE@@
Govern@@
wu@@
Anmeldung
agents
Porto
projekt
befasst
airports
Nachhaltigkeit
anne
freund@@
Käufer
beer
vergleich@@
UNESCO
Vertretern
bungen
ray
manu@@
fted
diff@@
Ansprüche
geschickt
Höchst@@
Mechanismus
girls
grund@@
bett
Hard@@
Module
ehmer
constitu@@
Al
cas
Premierminister
renoviert
Beachtung
Studi@@
Eth@@
exact
ements
weak@@
Sicherheitspolitik
stick
Rech@@
llen
considers
¼
Todesstrafe
outs
fes
feh@@
Jugendlichen
anwen@@
repair
sent@@
participating
Pflanzen
Macht@@
Mandat
wes@@
ached
Ergebnissen
ault
kra@@
verfahrens
lica
See@@
Department
beschrän@@
Erst@@
Urteil
Pacific
Line
verkehr@@
Danish
akte
GR@@
encouraged
Cooperation
olive
amp
lit@@
surprised
ires
Übertragung
Brun@@
weltweite
gelangt
Ay@@
mouse
stechnik
Glauben
programmen
atur@@
sexu@@
Widerstand
prosec@@
betrieb@@
hole
geführte
gehandelt
Todes@@
capabilities
stayed
AP
domin@@
älteren
CR@@
diesbezüglich
wesentlicher
gänge
specialized
willingness
teen
Fron@@
west@@
müssten
keys
versammlung
attend
cer
beeinflussen
eventuell
Truppen
chinesische
Poker@@
observed
contextual
porting
organiz@@
übersch@@
ve-@@
Wirksamkeit
Investment
Nor
Constitutional
hills
aktu@@
Helsinki
achievement
günstige
Team@@
Airlines
sied@@
25.
world-@@
Entfernung
Vice-President
märkten
compar@@
prison
Ersatz@@
clock
Symbol
broken
vable
ost@@
gefährdet
DER
utmost
sidenten
Authority
Apart
Marken@@
rank
Journalisten
propor@@
mäßige
Scho@@
begrün@@
Chile
Jer@@
tut@@
bringung
setzte
europäisches
Anim@@
Finnland
hungen
Aktien@@
prisoners
wander@@
zweifel@@
festzustellen
seeks
booked
tigkeiten
funktion
Urlaubs@@
Civil
gewählten
Betreuung
verletzt
Oliven@@
vent
Mexiko
regulated
fiziert
conferences
geblieben
Erlebnis
Louis
insist
Eff@@
Versammlung
know-how
promises
ever@@
Direc@@
thri@@
chter@@
ober@@
wooden
Gewal@@
Datum
opens
bild@@
sterben
endet
clarify
preserve
Holz
A.@@
enne
wonder@@
Netzwerk@@
roof
IK@@
Plug@@
oftmals
Weil
accidents
crises
shore
Ner@@
liger
dest
composition
developers
Inflation
armen
Sound@@
associations
scheduled
Terms
arm
Fehl@@
Cle@@
wahr
akes
ood
Präsenz
UR
sequ@@
jedenfalls
87
angewandt
neun
Nam@@
benutz@@
professionelle
correc@@
abend
spät
moderni@@
Ly@@
Är@@
sauber@@
ples
BS@@
Billi@@
Fur@@
Visi@@
esc@@
omp@@
illegale
ärer
momentan
theore@@
Arab@@
Dokumentation
Vic@@
ices
Einen
Finde
alongside
theatre
porte@@
Mädchen
Seg@@
By@@
roll
Räume
kehren
convention
geregelt
ý
iring
percentage
organis@@
Jerusalem
Franc@@
indoor
alitäten
Strände
variable
homo@@
क@@
by-@@
Portal
soeben
permission
xis
daten@@
Kohäsionspolitik
Fire@@
frequ@@
reise
längst
Access
bru@@
2015
infolge
Gemeinschaften
Schu@@
stätigkeit
ergänzen
crew
quotas
Wohnzimmer
Dresden
evident
Travel
edited
Tabak@@
HD@@
schwierige
HD
dist@@
olo
catch
purely
bewer@@
hopes
recogn@@
mentation
Ken@@
harmful
studi@@
bun@@
geliefert
regelung
convergence
airlines
wirkliche
Rock
Ky@@
nehmer
Modernisierung
navigation
IM
stung
verwal@@
ansehen
Ratschlag
6,@@
oli
schwere
&apos;m
festlegen
Cock@@
QU@@
Verwirklichung
palästinensischen
contradi@@
finanzi@@
Aufzug
wur@@
Samstag
Vorstellungen
Frauen@@
Stell@@
Lü@@
clim@@
branche
dire@@
anzunehmen
charakter@@
Spitze
Haar@@
Basel
gesetz
Regional@@
gon
seemed
Speicher@@
Kie@@
dispute
eries
incentives
Vertrag@@
Lis@@
discount
hinweg
Zuge
Versicherungs@@
uring
Jedoch
regierung
charm
ept
bewerten
stake
vierte
loading
Wild@@
Ticket
compulsory
Spezialitäten
Andalu@@
Florence
calm
B5-0@@
acks
Energieeffizienz
ě@@
DV@@
ENT
ential
agne
199@@
wäl@@
alisierte
läu@@
Doppelzimmer
string
Wirtschaftspolitik
clicking
ned
implications
objec@@
communicate
layout
umin@@
aufzubauen
chron@@
accounting
suff@@
kräf@@
Rin@@
Muslim
radical
ansprechen
humanitären
20th
jk
Betriebe
denkt
Übrigen
Operation
chtigkeit
relationships
encies
onal
netz
governing
Cuba
hur@@
kle@@
Verzeichnis
minor
sektors
ultimate
adventure
Errichtung
ao
tious
Schulden@@
Burma
superb
fan
Weiterentwicklung
hervorragend
expand
distur@@
geschlossenen
cky
organise
plug@@
entliche
Riviera
Chairman
elli
arts
HU
hinzu
istisch
ünd@@
BM@@
expense
wächst
Feu@@
array
enjoys
pilot
öl
Bildern
transfers
12.00
Product
Michel
Jesus
bearing
thaus
ened
Treaties
Stiftung
decre@@
forming
power@@
hä@@
unch
afrikanischen
Typ
verringert
arians
Fei@@
Unterkünfte
initially
meaningfully
ehemalige
offenbar
ex
Milch@@
Philosophie
stam@@
mische
sien
tigungs@@
Verbrau@@
Leipzig
strukturen
ali
itation
Argumente
Amts@@
medieval
Nigeria
believed
.net
Jon@@
multilateral
tains
Viel@@
bahn@@
Außen-
Search
wife
Gay
Software-@@
dunk@@
enger
approaches
Traditionen
krimin@@
м
Hit@@
Herr@@
Edinburgh
zahlungen
Flughäfen
Volkswirtschaften
staying
enthalt
tagen
closure
statten
Zwar
bek@@
Bücher
italienische
stag
manchen
dateien
83
versteht
Zypern
entfernen
stische
lement
gast@@
iness
technique
Schwellen@@
äumen
Werden
Auflösung
Rand@@
nei@@
richti@@
Joint
Connec@@
IP-@@
maybe
Listings
Schüler
Verteidigungs@@
Werten
stry
berühmte
tliches
smooth
Wohnungen
Inn@@
Die@@
Three
ry@@
Account
digitale
enforcement
Jac@@
volles
sively
Engineering
kür@@
Bö@@
tags
Wähler
magn@@
wind@@
Meg@@
Umweltfragen
busy
studied
erh@@
remarkable
poker
Grundlagen
digungen
Sektors
Arbeitnehmern
sprechend
Syria
Jewish
describe
retain
Ausarbeitung
Armen@@
Big
Akteure
CEO
shortly
woo@@
ücken
mern
mel
eland
Schei@@
MP3
Hen@@
Objekte
Annehmlichkeiten
addressing
Az@@
entieren
kontextuellen
fair@@
Adri@@
Nich@@
concentration
Wissenschaftler
Fundamental
mehrfach
entdeckst
Vermittlungs@@
employed
Firefox
arium
Human@@
SQL
Safe
Samsung
entstand
Pak@@
chi
alists
elev@@
permit
eliminate
Salz@@
Krieges
bought
Valencia
audience
endor@@
Read
Peti@@
überzeu@@
Glei@@
verwendeten
garanti@@
lio
saf@@
Kit@@
blan@@
Nord
Wiederaufbau
Orten
Fahrer
Danach
alter@@
geograph@@
repeated
Performance
Jean-@@
gäste
kostenlose
portra@@
poorest
grammatically
ingredients
instru@@
schemes
eingebracht
zo
Fabri@@
contextually
1.5
Filme
selec@@
1988
netz@@
hinzufugen
partic@@
geniessen
Arena
assigned
Free@@
enormen
NE@@
amended
mon
Work@@
qui
sozi@@
alisi@@
Ehr@@
Allah
kontextuell
chts@@
negotiation
tender
erteilt
grammatisch
buses
appe@@
ж@@
Einer
exposed
180
collabor@@
verw@@
Make
Tieren
exec@@
Deutschlands
Verbraucherschutz
gy@@
medicines
Gesetzes@@
constitutes
Jung@@
verhältnis
ados
dial
eur
ype
Bla@@
Himmel
chairman
Schlusselwort
flat@@
vorzunehmen
Schlusselphrase
Full
verbindung
Cir@@
ć
nutzt
cop@@
tags@@
aufgezahlt
gesellschaftlichen
Hardware
beseitigen
odi@@
Internetzugang
tali@@
contra@@
fehlen
nehme
lish
chairs
Appartement
Entwickler
vorliegen
iss@@
Sieg
ship@@
anwenden
werks
quellen
beu@@
maximal
Ausbau
ausüben
Ech@@
füllt
caf@@
geschäft
campaigns
hinaus@@
H-@@
certified
prize
Dänemark
ank
extending
desto
Nehmen
ized
neo@@
stätten
berger
aufbauen
Aussage
Strah@@
gab@@
Frequ@@
rö@@
chapter
Palma
hinzu@@
ausser@@
arranged
vorgelegten
gering@@
interne
Gibt
Zwischen
translated
milit@@
cted
poll@@
reagiert
managers
evol@@
Maj@@
Denken
Wit@@
Serbien
pop@@
legitimacy
Kommun@@
dor
stur@@
terror@@
verl@@
planen
verständlich
Lernen
Go
no-@@
fizieren
überwachen
beantwortet
beln
Kh@@
financed
dumping
ändert
appro@@
newsletter
aking
änder
sad
trained
ope
Wasch@@
Pir@@
shor@@
ück@@
Ausweitung
boasts
bedürf@@
Together
Km
halt@@
drin@@
asset
til
diving
Russlands
grund
ierungen
Wall
appointment
professionellen
Web-@@
ruhige
Übergang
glie@@
Sem@@
Max
TE@@
110
ratification
wissen@@
Plenar@@
städ@@
Zeu@@
CA
lass
Subject
desirable
gemeinsames
fewer
Mängel
Il@@
gebühr@@
Metro
Katalog
neighbours
completion
südlichen
residential
folder
eingeleitet
Sowohl
künst@@
ech@@
eien
umgehen
stens
gesucht
baus
Times
ede
Moder@@
paths
tu
Abfall@@
PAR@@
NICHT
Start@@
Vordergrund
loaded
weilen
31.
sizes
height
autom@@
Burg
advis@@
bevölkerung
ownership
Universitäten
ungst@@
prohi@@
Wand@@
hotel@@
günstigen
teuer
bearbeiten
communic@@
Transfer
Vorsitzenden
Satz
Gruppen@@
gewidmet
frequency
urgency
new@@
Modul
sorry
ji@@
Program@@
preferred
electrical
beach@@
suche
gewöhnlich
anen
Erwachsene
suggests
Ruf
Moscow
BA
IWF
examination
fresh@@
Bak@@
alisten
Haf@@
Beru@@
Wednesday
Lor@@
Slovakia
definieren
Besitz
hochwertigen
lock@@
kräften
Green@@
verstehe
Cit@@
hinzugefügt
tness
Main@@
gels
gerechte
becken
richtungen
segment
Real@@
zeichnete
Bestätigung
moments
bla@@
inadequate
enjoying
Bezeichnung
solved
ständi@@
innovativen
Empire
IX
wand
logo
references
Unions@@
deserves
Souveränität
gerung
Stur@@
HIV
GA
zugs@@
collapse
empty
24.
satzes
trags@@
hist@@
Siemens
wick@@
Gegner
fascinating
enhan@@
SP
Einsatz@@
ped
mäßigen
östlichen
Erfolge
listening
mixed
elegante
thumbnail
iron
Bestell@@
Series
gegebenenfalls
exemp@@
landwirtschaftlichen
Mittelmeer@@
vez
appar@@
staat@@
ury
League
Sens@@
Spaziergang
herstellen
nächster
iPod
keineswegs
Export@@
whereby
Arch@@
guar@@
erhoben
Wen@@
eben@@
Regen@@
üblichen
il-@@
cker@@
Eines
begun
broad@@
ref@@
bekann@@
Kooperations@@
underlying
Hof
betre@@
K-@@
fire@@
Anonymous
Cr@@
erkunden
travellers
proz@@
Rechner
LAN@@
Vereinigte
Immobilien
sely
Zweiten
Genau
foundations
freier
Können
tivity
D.
Rit@@
full-@@
os@@
Lohn@@
divi@@
conciliation
pper
Gottes
ologischer
prefer@@
signing
vacc@@
behand@@
gestiegen
besonderes
Sab@@
Niederlande
repeatedly
utt@@
isse
achtet
escape
klin@@
steller
Inc
84
zin@@
zusehen
Edi@@
secondary
Boot
Insgesamt
compete
journalists
sional
erstes
occupation
dramatic
Argument
ausgehen
Intergovernmental
Café
bonds
kün@@
RS@@
gefährlich
aden@@
suited
unnecessary
Atlan@@
ökologischen
Ehre
Employment
Werkzeug
vollem
ware@@
Besonder@@
sozial@@
Blair
hilfreich
herzustellen
Oli@@
cken@@
pic@@
reads
html
Stri@@
saal
lor@@
Existenz
entsch@@
LIN@@
religi@@
ms@@
300@@
parlamentarischen
ille
partial
Revision
stärksten
expanded
pft
Wind
ador
bud@@
hundert
berichtet
Klassi@@
ansch@@
Monte
ME
PM
evi@@
Verkaufs@@
bigger
loses
welle
cancellation
ktiv@@
würdigen
zent@@
cookies
130
considerations
Anbetracht
kurse
veröffentlichen
Patri@@
angehen
Nichtraucherzimmer
gige
offiziell
economically
umfassen
d.@@
Erzeu@@
intensiv
asp@@
ausländischen
kas
commit
sever@@
ids
Physi@@
Several
gehend
observe
Republi@@
erend
enheit
Ausblick
Ingenie@@
én@@
tia
ign
erleb@@
splendid
Cop@@
losing
Prozeß
hence
Ministry
Glück@@
natur@@
Saint-@@
violation
effizienter
Sekunden
1986
Effekt
zahlt
comparable
größter
gebene
Fisheries
Quell@@
TA
Fassung
Kommentare
Modus
forwar@@
höchst
instrumente
bug
ы@@
gesetzten
cope
verbreitet
mass@@
OLAF
kit@@
tax@@
principal
beteiligten
Nizza
vary
konsequent
enting
gegenüber@@
euer
Internal
erwiesen
Aktu@@
Publikum
pec@@
Ablauf
Montenegro
funden
löschen
Entschlossenheit
characteristic
Konvent
Ran@@
timetable
schwedischen
sport@@
Anmerkungen
instantly
Kau@@
baby
thorough
Sun
Düsseldorf
Swi@@
elektronische
Prof.
ehm@@
coastal
maj@@
vorsch@@
Leben@@
Gas
enburg
auswählen
representing
Kopf@@
incorpor@@
Demokraten
gemütliche
liz@@
lively
false
zusetzen
Stan@@
genuinely
regionen
ahnen
withdraw
designer
examined
Corporation
berich@@
Migration
Antri@@
Over@@
prozeß
Nation
sessions
Chief
reibungen
Edel@@
Gebühren
debating
Lom@@
günstig
generell
Cl@@
Kompetenzen
carte
Filter
erheben
existieren
angle
tat
gefühl
band@@
lans
Gaz@@
Verbrauchern
paket
τ@@
stein@@
Arti@@
smart
KDE
thro@@
bon
Erreichung
gelegene
Woh@@
Quark
informal
lette
gift
fat@@
anten@@
Schau@@
nov@@
purchased
optional
Original@@
ción
Rechnungs@@
Entwick@@
textile
diver@@
genau@@
möglichkeit
tätigen
Aspekten
Lot@@
bürokrati@@
Know-how
Marco
Patten
betriebe
mung
ad-@@
g.
bedroht
Bekann@@
Hör@@
integrierte
izing
thei@@
Prag
standes
seiten
Modern
openness
Tun@@
schriftliche
Bay@@
Level
grenzüberschreitenden
Pflanzen@@
slopes
Ausrüstung
blick
ago@@
widmen
loans
Alps
vertraut
häl@@
fare
featuring
high@@
delete
autumn
Coun@@
по@@
Ratifizierung
Event
speeches
seln
blind
sample
Heimat
Vermögens@@
LAN
hard@@
Bestellungen
eding
turns
foremost
intentions
linge
falling
tolerance
schar@@
Palette
kter
over-@@
Lehrer
Sachver@@
ly-@@
schung
TV@@
kleinere
perform@@
exist@@
gewicht
soul
Storage
bewus@@
apparent
adult
Bü@@
beispiel@@
spectrum
Stahl@@
civili@@
Bevor
quest
Chin@@
pay@@
bewußt
bruch
gestatten
Inv@@
dacht
Updates
ghter
olle
Tickets
tigte
geous
Solar@@
hohes
alternatives
Rennen
situ@@
Risiko@@
fft
sichert
Ima@@
früh
Wett@@
schwi@@
affili@@
horse
dition
wehr@@
arabischen
1945
Clubs
exten@@
Autor
accessories
papers
genauer
fell
kostenlosen
hafter
wel
ktiv
bewegt
subsequently
vac@@
weichen
simultaneously
Venedig
Source
Ideal
erfol@@
strike
Brücke
zeigte
ideally
allo
ris
Ashton
desktop
ethical
Sz@@
rated
sunny
Behörde
moreover
pol
destinations
complaints
Laden
förderung
accuracy
Abteilung
codecision
W-@@
arily
History
wai@@
ket
Morocco
beibehalten
erwerben
Spor@@
langem
Keine
ähnlichen
Super
viewed
lights
manufactured
dend
afford
ffs
teilungen
Vorrang
überrascht
destroy
affordable
verla@@
Greens
finanzierung
branch
posts
atri@@
onic
agen
logic
Rü@@
nich@@
Konvention
22.
calendar
erie
Australien
Val
respects
vertrau@@
BER@@
counts
Schad@@
Weine
Steigerung
Statistiken
tiere
maßen
smoking
Gemeinden
expenses
Dur@@
Slowakei
Press
vermittelt
viewing
Soldaten
zugeben
ér@@
hielt
EW@@
Durchsetzung
mechanical
devoted
terrible
getreten
bits
Uns
umgehend
Festplatte
falsche
öffentlicher
URL
artige
measurement
hang
earn
Weiß@@
unterschiedlicher
DS
7,@@
Klarheit
position@@
sitz@@
alls
ckets
excursions
key@@
spots
emo@@
solch
Schil@@
WTO-@@
gü@@
Wichtigkeit
на@@
Betrieb@@
üh@@
Run@@
Automati@@
chemische
num@@
ior
arrangement
derart
α@@
celeb@@
і@@
Häfen
Arts
Ausrichtung
guaranteeing
cost-@@
zero
accordingly
Ursache
Schicksal
shing
der-@@
funktionier@@
venture
funktionen
fahrzeuge
Jahr@@
zweitens
erkennt
Kenntnisse
Für@@
here@@
survey
attra@@
grand
stechn@@
Schulz
Kein
erteilen
Village
drop@@
79
zweiter
behauptet
Haiti
Maß@@
som@@
ea
wachsende
Caf@@
gon@@
clarity
fter
ña
elem@@
ा@@
importantly
Youth
verurteilen
Garantien
bewegung
vocational
Dynamik
gebenen
xel
sid@@
Formul@@
Growth
nä@@
tips
Otherwise
aben
Palestinians
bak@@
1987
condemn
LT
acceler@@
composed
Gö@@
1985
anzuwenden
icht
gues
tribute
Werkzeuge
Vorgehensweise
Lager
hochwer@@
authors
plate
atik
Reser@@
schwan@@
geringen
äden
custom
continuously
flexibel
prob@@
jährlichen
dal@@
answered
Ach@@
Sports
Section
Library
motorway
Export
histor@@
mur@@
Audio
ph
kombiniert
inspection
Seele
schalten
spanische
Apart@@
Plätze
verbreit@@
relief
ichten
Volkspartei
reibungs@@
preserved
tragedy
residents
Nordic
jointly
geren
frü@@
Lap@@
dien@@
Tak@@
forgotten
inclusive
transaction
Program
Wie@@
FI
Mittelmeer
Herkunfts@@
ij@@
Schle@@
ancy
angebote
herrsch@@
refused
revised
alled
hell
ke-@@
nahme@@
centers
maß@@
Dep@@
terminal
lüsse
tragic
aktualisiert
Gü@@
Kommissionspräsident
Hände
gebäude
mäß@@
zierten
üsse
Distribution
Solana
Spre@@
bewertet
Fleisch
komplexe
Lateinamerika
violent
Bud@@
dieren
e-
Immer
Bergen
verursachen
äder
Ferienwohnungen
sender
gerich@@
beabsichtigt
Fortsetzung
afraid
Menschheit
v.
scar@@
oppose
vertritt
Versand@@
mand@@
buying
pain
Mir@@
fifth
noon
wirklichen
beweisen
Diesen
Felder
ool
urg@@
SDL
Entwicklungshilfe
Partnership
taus@@
rene@@
gehörige
anzupassen
Strom
GO
William
veran@@
umfangreichen
Betreiber
blicken
entran@@
lassung
FC
Garten@@
jun@@
broader
Zuverlässigkeit
-und
stopped
Versprechen
certification
inneren
Weltkrieg
width
befürworten
onia
Bun@@
margin@@
iles
behavior
instruc@@
Mobil@@
herausge@@
orientation
ен@@
jurisdiction
CO
gemütlichen
Tief@@
ausgestattete
Ereignis
Brü@@
ava
Inhalten
erheblichen
ð@@
ax@@
Wünschen
terin
Kürze
argue
erarbeitet
biom@@
Schreib@@
Aussagen
Rub@@
doubts
ep
ceiling
eure
onds
fünf@@
Verwal@@
alistischen
Francisco
Water
Zimmerbeschreibung
Halle
arbeitungs@@
fix@@
deadline
deci@@
GAP
consum@@
eriert
potenti@@
assurance
Weiterhin
äuß@@
gradu@@
ktor@@
Reinigung
fragt
symboli@@
technisch
promoted
überra@@
Service@@
Kredi@@
änge
Copyright
gan
aush@@
igungen
traum@@
komplexen
könne
External
Docum@@
ku
Ry@@
Tech
begegnen
Heads
SK
oli@@
relaxed
vie@@
Einzelheiten
niedrigen
Offenheit
Alternativen
typisch
commerce
stattgefunden
Kennzeichnung
gingen
treas@@
Haushalts
Gui@@
E-Mail-Adresse
Jean
nobody
Betrach@@
23.
Problematik
Southern
gepf@@
finds
harmonisi@@
Ass@@
depth
brands
fertigung
zentraler
swi@@
Stau@@
stet
insul@@
sculp@@
zustande
Comple@@
¶
xe
öse
geehrte
honest
Mischung
Jag@@
tower
ни@@
präzise
add@@
ensu@@
calcul@@
Seiten@@
engen
chat
affecting
derungen
publish
kit
Sex@@
grenze
formular
yers
schutzes
po
ständiger
arri@@
respektieren
KG
perpet@@
arbeiteten
klären
focuses
terrasse
specially
Gesicht
von@@
sake
angekündigt
t.@@
Lieferanten
nötigen
Südo@@
strebt
Zucker@@
tropical
deutliche
viable
vere
fortsetzen
uneingeschränkt
auswirken
fam@@
focusing
enor@@
Samm@@
holder
short-term
ample
Betracht
Rechn@@
Avi@@
innere
ре@@
Nachdruck
kunde
schnitt
NEW
erleichtert
Hans
ester@@
hem@@
aled
verpflich@@
dog
Bauern@@
schn@@
conversion
stering
Kul@@
eleganten
belongs
davor
Beschränkungen
Commerce
regionaler
Dokument@@
electoral
Jan
Netze
fungen
Labour
Bewusstsein
Distri@@
vals
EG-@@
General@@
tradition@@
Wissen@@
SL
Finnish
gebung
removal
modify
California
signals
pensions
knew
exhi@@
nel
Besu@@
quantity
renewed
terung
standardi@@
gemessen
attended
Zurich
nern
healthcare
gestartet
tone
rufe
mir@@
Olymp@@
tung@@
medizinische
Glob@@
spüren
jüngste
arrange
valu@@
wheel
sogenannte
einiges
sul@@
ander
vertrauen
russische
up-to-date
Schö@@
essing
visits
stige
s-
Phil@@
éri@@
vorliegt
derselben
stren@@
lining
Wich@@
dimensions
vermutlich
tempor@@
wirft
gerungen
Zeitplan
Gebir@@
dian
stands@@
univers@@
teln
hood
dien
refuse
Verheugen
Monte@@
ausführ@@
cir@@
fin
stressed
Szen@@
recall
ystem
issen
ennen
publishing
erische
küste
chose
rub@@
Bauern
tigten
Fans
Gute
Minister@@
integrity
prospect
Zielsetzungen
hn@@
‚
cameras
installations
kurzer
progressive
endgültige
schedule
österreichischen
pack
Ministerpräsident
rev@@
wise
Speci@@
cio
automotive
Ander@@
stops
alise
convert
übt
transitional
elen
Eröffnung
edy
fts
gieren
Sto@@
Empfang
Wahrung
sibility
closing
organize
judge
advise
Original
Ford
wunderschöne
yo
Contact
faire
Net
realisiert
empfängt
Berlin@@
aching
faszini@@
Baum@@
winner
getrennt
Million
whatsoever
missed
ruppe
Minderheit
Übersicht
expressly
privileged
provo@@
monuments
nie@@
30-@@
basically
stil
redu@@
FR@@
evalu@@
Block@@
Südafrika
Protokolls
pair
miß@@
angenehme
baut
afri@@
Derzeit
declare
Hä@@
researchers
deserve
officially
Übernahme
adjustment
painting
Schnell@@
politiken
Past@@
bag
iet
zimmern
mini
institution@@
Kün@@
Wäh@@
ful@@
lei
environmentally
leistet
Ausnahmen
Heimat@@
catalogue
tatsächlichen
whe@@
fairen
Ski
erweisen
Beglei@@
verbindungen
plane
Galileo
tie
Sing@@
Freizeit@@
schir@@
enes
Hafen@@
lebenden
Cin@@
Lebensmittelsicherheit
GPS
bird
å
verwiesen
typically
gau
moderner
Гј@@
Massage
rela@@
Funktion@@
Nachmittag
Schie@@
od
Betrifft
Schmi@@
nicht-@@
ground@@
Georgien
Cast@@
icht@@
1970
Gy@@
Meister@@
presidential
ranging
Alters@@
herum
GM@@
Alban@@
posted
unterbrochen
erwähnten
Representative
Č@@
drives
hing
Tarifa
Syrien
trains
less@@
delays
certificate
Ms
Kohlen@@
fit@@
wol@@
authorized
Produktivität
erforderliche
SS
freu@@
Order
ution
rational
cles
exhibitions
occupied
credible
Brau@@
Cologne
ION@@
trenn@@
drängen
Olympic
anerkennen
Erarbeitung
erstreckt
passion
neighbourhood
EIB
Bevölkerungs@@
geringer
begründet
technischer
dienstleistungen
soldiers
uncertainty
symp@@
genießt
fa
Taten
Jahre@@
formuliert
Händen
verzichten
Game
GUE
observation
promising
kompliziert
stö@@
bili@@
tica
ierungs@@
Kreuz@@
at-@@
populations
Chancengleichheit
Großen
lossen
Ce@@
dity
brauch
gerechnet
Landwirtschafts@@
isierung
verz@@
interven@@
arrest
komfortablen
feder@@
kö@@
mines
einst
Verfahrens@@
newspaper
dring@@
Illu@@
olen
tion-@@
kunden@@
anpassen
whenever
movies
Automobil@@
zugestimmt
May@@
interessanten
holi@@
Laut
absurd
begünsti@@
Imm@@
sisch
bezeichnen
vorsieht
red@@
Wat@@
verstän@@
Provi@@
promenade
geeigneten
Zerstörung
bedro@@
Drogen
duration
mechanismen
precision
ops
Fischler
gla@@
pattern
yang
ignore
sovereign
icon
mig@@
gn
freight
lion
religiösen
verabschieden
ateg@@
actor
ursprüngliche
tension
Augen@@
gebühren
Engli@@
zurzeit
beneficial
Herkunft
achievements
virtu@@
felder
innen@@
Yo@@
chers
Ref
Bureau
tariat
ehe
Milan
kriterien
klimati@@
proximity
beef
emerged
ро@@
frequent
vereint
musikali@@
ausländische
Select
Force
liter@@
alisierungs@@
neutral
zip
Ann@@
sandy
lös@@
Inclu@@
Rückgang
mmen
Kurz
surveillance
gelernt
leichte
Tradi@@
Abbau
Clar@@
übermitteln
liegende
Bit@@
erarbeiten
releases
aufnahme
aks
patri@@
Fang@@
trouble
tigh@@
Bürokratie
Set@@
Everything
duplic@@
Solutions
Language
IBM
nem
Aufhebung
explicitly
Digital@@
unusual
herrschen
weit@@
ratio
bles
Prize
dress
W.
Gewinn
schenken
emphasi@@
öffnet
arbeiter
Defence
lac@@
habt
ento
sailing
IA@@
ökonomische
cross-@@
Privatsphäre
ür
SU@@
eröffnen
Fisch
literature
feedback
archive
Co
planung
hire
ller
precious
throw
employers
ingu@@
abgesehen
gewünschte
Index
dieselben
persi@@
Until
ц@@
sensor
handels@@
Tari@@
Berei@@
erien
machinery
Zunahme
tausend
err@@
beinahe
verarbeitet
hört
sicherer
diagno@@
plätzen
Nation@@
suspended
Schrift@@
prestigious
här@@
fitted
book@@
nur@@
Fremden@@
vir@@
tels
wahre
Radi@@
prinzip
Mittwoch
gehabt
institute
Nichtraucherzonen
Wellness@@
marktes
parameter
Verfahrens
streben
Lun@@
abe
knü@@
distinction
haus@@
Zus@@
fuhren
Liberalen
Minibar
pil@@
zierte
140
cancelled
gehe
anforderungen
bestände
decor@@
marking
logistics
krieg
ony@@
meldung
ecks
granting
entlich
facilit@@
Presse@@
Beijing
Audio@@
GP
identification
Wiederherstellung
retail
tner
läge
tech
Verordnungen
kritischen
kohär@@
obligator@@
medizinischen
400@@
Ltd
Tabelle
flying
Amerikas
zeichneten
Photo@@
Ros@@
Terroristen
läufe
Klimawandels
Gut
concerts
drückt
angenommenen
verschaffen
compla@@
bac@@
kredi@@
maps
Sav@@
Det@@
esta
Strasse
zugelassen
postal
mechanismus
xed
umso
taxpayers
premium
toilet
dieselbe
bab@@
eigentliche
chemicals
interactive
Experim@@
Gewi@@
deu@@
verarbeitung
Fli@@
connec@@
dahin
1,5
vermieden
debated
glichkeit
schätz@@
Tampere
deficits
Klin@@
eted
blieb
EURO@@
sized
orientierte
Mar
preparations
spektakul@@
relevanten
methode
Anreize
Kreu@@
gebau@@
announce
Argentina
fahrts@@
Sac@@
Theorie
Wettbewerbs
plant@@
But@@
territories
Sri
certainty
Händler
ruling
Erhalt
ssig
utes
feste
Proz@@
prevented
äum@@
ENT@@
verteilung
Fahrzeug
Umstände
gemeinsamer
negotiated
eindeutige
gression
Quad@@
nete
Doha
Zahn@@
mist@@
höchster
Roth@@
undertake
dasselbe
recession
geringe
subscribe
Formulierung
eting
tauchen
academic
Finanzen
Att@@
cus
integrieren
Presidents
reflection
tisches
Bridge
Third
landschaft
berührt
revealed
industriellen
Dri@@
Tower
alty
Charme
gne
Kämp@@
schein@@
besser@@
kampf
Strategi@@
zeichnung
Funktionalität
indicators
behandlung
europa
favourite
realize
Governance
rac@@
etabli@@
Begründung
aufgeführt
kleineren
alike
Experience
consistently
accum@@
Kapazität
befürwortet
returns
ien@@
theater
heated
Köln
esten
publications
9001
retten
zzo
Bett
rever@@
threatened
tigem
unde
agen@@
ratified
heutzutage
`@@
zones
Origin@@
menge
HP
verzer@@
mistakes
stützt
Schaden@@
Non-Smoking
die@@
tas
ession@@
tial
Mode
comprises
zwischen@@
secondly
Einnahmen
zione
gnisse
iner@@
Fremd@@
the-@@
Rural
admit
Angabe
Richter
elegan@@
26.
Binnen@@
ophi@@
problemlos
Schuld
untern@@
entation
berat@@
bedauerlich
hesitate
29.
esa
necessity
Scotland
deaths
VI
einstellen
Wälder
Rab@@
Kel@@
ility
bahnen
zwölf
purchasing
civilian
TM
Lul@@
generous
statisti@@
lten
kä@@
ht@@
à@@
lovers
gegenseitigen
flexi@@
Country
3rd
PPE-DE
glaubt
Verabschiedung
innovations
jahre@@
Fast
Lar@@
insufficient
Trend
Glas
ax
UNG
imported
displays
lusses
mün@@
zweck@@
Brow@@
licht@@
rey
Bahn
Consi@@
patterns
Mot@@
fün@@
rung
Nav@@
Well@@
trop@@
aufgestellt
Ausgrenzung
Phot@@
stücke
gos
eve
cali@@
XML
lighting
replacement
inci@@
ë@@
eled
änderungen
chtigen
En
führungs@@
m.
ml
Anbindung
Versuche
pak@@
architectural
abgeben
bene
Meinungen
downloaded
para@@
tioned
hunder@@
späteren
Leiter
photographs
thanking
enced
beschäf@@
Objekt
telecommunications
s.com
black@@
Menschenrechtsverletzungen
Stufe
rischen
geräum@@
catering
konfigu@@
Mobili@@
esi@@
datei
beruflichen
Präsentation
profit@@
acquisition
eth
ktiver
durchzusetzen
split
frau@@
elf
Peri@@
stim@@
bisschen
kehr
evaluate
1979
wärts
unknown
Rechnungshof
Reich
sub-@@
Vertrieb
negotiate
Dok@@
Handlungen
Ful@@
Ausgangs@@
konzep@@
Sant
Karl
Jugendliche
wünscht
Designer
Abgeordneter
Themen@@
Logik
kreis
entlichen
passieren
Dou@@
Holland
protest
Bürgerbeauftragten
senior
spare
geld
moves
Lissabon-Strategie
Verfolgung
bou@@
Daniel
Konzern@@
boxes
snow@@
airline
occurs
Gallery
defen@@
transit
fails
Dun@@
Kontra@@
Bühne
ika
dün@@
schönes
mail@@
basieren
Wald
erlangen
Kön@@
konkur@@
Mob@@
DN@@
spielte
guard
empfiehlt
beruhen
weis@@
machten
rank@@
greenhouse
indicates
Fak@@
sheets
Anzeige
tages
station@@
magic
performing
bezogen
Weltwirtschaft
ehrlich
lowing
2.5
wars
PER@@
zunehmende
verage
gratis
Innov@@
tus
claimed
terungen
Demokrati@@
nos
ature
justify
Satelliten@@
favorite
28.
harbour
alistische
fahrten
ears
dollars
Fall@@
präsen@@
wertvolle
Produktion@@
Energiever@@
editor
Anträge
Raums
Fakten
lem
Summe
bureaucracy
scre@@
argum@@
PE
erlassen
herunter@@
alp@@
Funktionieren
Schnittstelle
Wetter
schlechte
nachzu@@
platten
Excellent
Türen
Van@@
admi@@
Aufenthalts@@
boden
placing
maximale
notably
top-@@
patents
alien
robust
Ausbeutung
wies
Bewohner
gerechtfertigt
I.
J.
lassungen
gelegte
creature
polnischen
fik@@
farms
demonstrates
Linien
doppelt
comb@@
atively
brut@@
Democratic
fiel
sonstige
sofa
quelle
endgültigen
mandatory
authorised
Zusammensetzung
kostenfrei
Route
Belastung
veni@@
Bonn
umb@@
schreibt
thir@@
tle
belieb@@
Hussein
SY@@
notified
Versorgungs@@
Histor@@
angebotenen
harm
see@@
cooking
mittlere
Jav@@
veranstal@@
grü@@
supplementary
gebunden
initiated
Kuba
gewinnt
pays
DR
slowly
worrying
tise
Register
Getränke
EIN@@
dual
Gewinne
borne
BS
steuer
A4-0@@
heavily
deutsch@@
Außenminister
aul@@
leidet
einführen
downtown
lichste
englischen
Conditions
Fremdenverkehr
Spannungen
unterscheidet
beschreibt
18th
solven@@
one@@
allocation
Tam@@
Referendum
sto
Erzeugung
invo@@
goo@@
drucken
humanity
atten
wski
timely
Peace
dges
fications
rage
jeglicher
zehn@@
mers
halten@@
Metro@@
einzig
tec
Istanbul
rist@@
amente
Doma@@
Look
ues
care@@
Wesen
antwor@@
überwacht
ret@@
Industrial
Intel
whi@@
clothing
Metall@@
rechn@@
measuring
intelligence
Installations@@
organisierten
passende
geladen
schwieriger
digit@@
ausreich@@
Install@@
dauern
condi@@
Adressen
Ordner
ausreichende
Beste
High-@@
Kn@@
eignen
Ot@@
gründete
eingeladen
normen
Alpen
Fußball@@
unions
Osteuropa
terien
Geschäften
Georgi@@
abgegeben
Heil@@
qualit@@
citizenship
effizienten
Schwarz@@
iti
verliehen
agrees
voters
nationals
beeinflusst
Technologies
Chr@@
Nar@@
specify
etry
Energiequellen
Olympus
Wichtig
Gan@@
apparently
aton
Feuer@@
pho@@
Risi@@
wherever
brü@@
Invest@@
Intensi@@
converted
Beurteilung
caught
oter
sq@@
Rezession
Saal
potentially
cast@@
ök@@
anna
infl@@
dum
geräten
Spektrum
day@@
sagten
griffe
terer
9,@@
workshops
Fünf@@
SC
sey
zwanzig
twin
coal
geplanten
vielsei@@
Muse@@
ablehnen
Handy
inischen
regimes
würdi@@
zi
Lon@@
differenti@@
Fischereipolitik
copies
pling
Verlängerung
einstimmig
dominant
geachtet
trags
360
Left
directions
Haushalte
wä@@
künfte
Art.
nieren
expanding
abstra@@
bedienen
Beratungen
Jacques
Palästinen@@
premises
Insel@@
inated
austausch
Dest@@
gelingen
question@@
Deposit
Part
dargelegt
staatlicher
cancel
israelischen
OECD
alla
grat@@
Marokko
organisierte
intervene
automation
pru@@
stays
tioning
punkten
Beamten
trei@@
gang@@
investiert
Fitness@@
vereinbarten
Vers@@
Ergänzung
Mani@@
govern@@
gesichert
District
Künstler@@
r.@@
Fried@@
withdrawal
contractual
stones
craft
tranqu@@
locate
Goo@@
stret@@
defining
schlech@@
Visa
Gärten
beschleunigen
aturen
Menschenrechten
after@@
Erfol@@
Proje@@
accommodate
Rahmenbedingungen
ärmsten
£
externe
jour@@
ο@@
Studios
eigenem
horizontal
settled
sech@@
react
ę@@
Fair@@
ösen
conservation
zugute
contributing
aussehen
Galerie
kran@@
coordinate
synthe@@
räu@@
älter
Master@@
Hung@@
Choose
chief
betri@@
Ungleich@@
conventions
Israelis
einnehmen
ESS
Still@@
gestellte
tonnes
leitungen
Bli@@
applicant
cut@@
verständnis
qualifications
onien
experiencing
Gebäuden
Sus@@
unanimously
Einschränkungen
sist@@
structured
tries
Spon@@
intense
proje@@
verstärkte
mature
imposing
Cathedral
lux@@
BL@@
simul@@
attrac@@
betten
Kö@@
Traum
Spri@@
acci@@
rahmen
Mä@@
berufen
С@@
Erwägung
ssa
starkes
arom@@
Which
degrees
Tö@@
unterwegs
Eri@@
aces
powered
DP
Beschwerden
systematic
Itali@@
demokratisch
appreciated
Föderation
pa
zur@@
gebe
platforms
Iranian
tened
primi@@
License
geschafft
те@@
Mög@@
teu@@
Monti
Mengen
revolution@@
erstens
ftung
thers
technologischen
Mann@@
Her
Similarly
exposure
coverage
stützen
Amp@@
Premi@@
streng
tons
Diplom@@
Schutzes
Schmer@@
mals
bewahrt
rix
zweif@@
churches
ва@@
flug
Pit@@
vorschläge
terrorists
schein
dero@@
Unternehmer
drinking
authentic
ausgedeh@@
Ron@@
emission
Bell@@
breaking
Phänomen
Konferenzen
gebraucht
tough
BE@@
27.
franzö@@
procurement
außen@@
Lithuania
benannt
Intervention
kei@@
Technical
hosts
keeps
workshop
versehen
dnis
Malaysia
fenster
stattdessen
state-of-the-art
breach
technologie
ausstattung
creativity
benden
büro
handled
Wireless
José
controlling
t-
inspec@@
iche
Stei@@
turing
neten
eigentlichen
Verletzungen
Geben
gebnis
Aufnahmen
Produzenten
Class
IR
ys@@
silver
teilte
Leuten
nord@@
Snow@@
ffer
Hou@@
enza
automatische
vielfältigen
Einschätzung
probieren
Termin
respectively
Secretary
geni@@
fting
Medikamente
agt
Feststellung
Pflichten
CH
erischen
Tol@@
inakzeptabel
ses@@
nachhaltig
en.@@
Anwesenheit
teilzunehmen
silence
vielfäl@@
Terminal
headquarters
vorrangi@@
igten
Unterhaltung
approx
operative
laser
transformation
realen
Gebühr
biological
ules
Arbeitsgruppe
racing
mini-@@
wahlen
vorgehen
mien
entries
erre@@
Fed
emerge
watching
Extra@@
self
Prakti@@
zell@@
diger
Einwanderer
ple
ingt
Verfasser
blame
technologische
beliebigen
hospital
Alber@@
grei@@
eingeräumt
namen
irische
minimal
spätestens
Feier@@
arbitrary
hef@@
lé@@
zah@@
té@@
Madeira
kostengünsti@@
visitor
facto
Santer
dachte
vergeben
ja@@
auseinander@@
bereit@@
disputes
Santiago
CM@@
gische
sos
worry
Solche
urity
unstable
kommerziellen
sar@@
Cala
Sili@@
Neues
competences
Desktop
adjust
handed
Slovenia
proce@@
vel
illing
Betrug
writer
Lich@@
jet@@
breit
elderly
ernsthafte
birds
schöner
oberen
Gali@@
Arbeitgeber
temperatures
tary
gesammelt
pet
wör@@
half-@@
Dritt@@
Beg@@
kids
überein@@
NRO
Rek@@
lokaler
konvention@@
orientierten
warmly
Hunder@@
part@@
findings
Steuerzahler
ressourcen
pursued
schränken
Info@@
cz@@
orien
warming
undermine
kommun@@
eintreten
integral
Freuen
lichkeits@@
loved
eas@@
kontinuierlich
edit
rücken
blin@@
Come
11@@
Vertretung
zellen
Friedens
rest@@
größe
Innerhalb
Verts
consistency
Lager@@
essence
auen
Var@@
insofern
cip@@
Mobiltelef@@
fulfilled
rose
jemals
motions
etri@@
ambition
camps
Spy@@
Darfur
Pel@@
Ferien
wen
Erweiterungs@@
alli@@
Work
Fair
Venezuela
ßten
tube
Obviously
rem
ate-@@
dep@@
Geno@@
Bad@@
gnis@@
Bildschirm
ausgewählten
Profil
recep@@
erfasst
führungen
ruhiger
pro-@@
equity
räum@@
dat
Yugoslavia
vels
emin@@
CP@@
aded
ST
tian
т
AKP-@@
assured
dium
PK@@
ühr@@
Gil@@
gst
Maxim@@
perspectives
derjenigen
Gum@@
Konstruktion
Liqui@@
fangs
Bonus
3000
credi@@
Bill
alarm
geistigen
Renaissance
Lad@@
crops
erlei
то@@
Tourismus@@
ebenen
Lebanon
zeitgenös@@
Konfiguration
alleine
Visit
Emissions@@
isn
Erbe
paradise
erneuerbaren
survi@@
compli@@
fehl@@
continental
Angel@@
bestens
volcan@@
tations
Vin@@
Tennis@@
Wiener
wahl
Aro@@
Fore@@
clu@@
passes
Konflikt@@
proto@@
Nom@@
unterstütz@@
worfen
verwirklichen
Ten@@
Drittstaaten
salon
ausführlich
venue
Shanghai
Rubrik
gra
beschließen
specialities
modernes
itäten
Brok
mut
bewirken
tnis@@

controversial
Liberal
süd@@
biodiversity
sentence
judgment
verpflichten
Communist
ef
Editor
verletz@@
restau@@
Mehrwert
Konzentration
Tä@@
Seen
Europar@@
fuhr@@
stete
well-being
concent@@
legten
Drive
Geräten
196@@
Inkrafttreten
iny
mic@@
verzeichnen
fuels
1984
curi@@
.ch
wäch@@
Grundsätzen
anony@@
Profession@@
beginn@@
convince
suggestion
wirkungs@@
Ausübung
fes@@
orienti@@
aer@@
Features
Prozent@@
Das@@
24-Stunden-Rezeption
Process
plötzlich
wages
enta
graphy
zunehmenden
IL
FL@@
konzept
Drei
Muster
Aktionsp@@
unvergess@@
basierte
Zü@@
ziel
tured
Krisen
bags
rom@@
quot@@
Tochter@@
Pur@@
Vertre@@
Chan@@
Gespräch
politan
pleas@@
gle@@
uen
PCs
deutlichen
como
erheb@@
Mountain
bill
blichen
AKVIS
abilität
Woo@@
ruf
æ@@
open-@@
Rußland
eindrucks@@
explains
Andreas
respektiert
Eco@@
erweiterten
confident
RSS
leather
Zul@@
Elevator
FOR
komfortabel
hed
Techniken
receives
lowest
agent
kreu@@
holes
tro
xy
arische
oured
choosing
Herrschaft
lou@@
Live-@@
shaped
Konzep@@
ruft
defe@@
TV-@@
Organization
Kais@@
Konzepte
outs@@
ennung
Taste
Studium
Vill@@
ough
ät
Sitzungen
inu@@
poin@@
weitaus
rats
Palacio
Tuesday
demokratischer
Om@@
ös
legislat@@
äf@@
Verluste
Kreativität
describes
Anwen@@
angelegt
berichte
strit@@
koordini@@
gend@@
periode
schaftsp@@
unemployed
ordnungsgemäß
bearbeitet
Grünbuch
Develop@@
disappointed
sonstigen
Merkmale
phi@@
ahl
mann@@
affung
Glo@@
Certi@@
Change
Gerichten
Smith
ect
specifications
cha@@
typische
registri@@
erbaut
gelt
Reader
Panasonic
Finance
normale
batt@@
ń@@
kritische
Ausschüsse
vertreter
enswerte
ography
chef
gelegten
gesonder@@
ligkeit
produkt
artificial
Unsicherheit
Vertriebs@@
bindung
erfahr@@
Fernseher
gesundheits@@
Taliban
hl
feiern
Rhein@@
messe
Division
vend@@
wiesen
zielt
Ocean
Tob@@
Double
ira
ball@@
Antonio
gaining
gur@@
bildungs@@
schli@@
dena
olls
völ@@
II.
goti@@
threshold
gefährden
trennen
Medizin
FOR@@
U-Bahn@@
liness
minist@@
Alltag
Kirchen
leid
Milli@@
eradic@@
Cubase
Rak@@
adju@@
avoided
cache
kab@@
genetic
Rand
fortgesetzt
demokrati@@
Getrei@@
zon@@
substantially
Nacht@@
angewiesen
voneinander
konstruktive
frischen
estimate
vern
parado@@
Rassismus
End
harmony
UND
gging
Beschluß
catastrop@@
Zit@@
Consulting
consul@@
Mom@@
luß
practically
column
vorbehalten
rom
Umsatz
noticed
pron@@
bedauere
bewiesen
hte
isten
sätzen
Virus
flicht
wirksamen
fis@@
eingeschränkt
cep@@
meantime
Französisch
bereitung
Innovations@@
novel
JP@@
measured
Unterlagen
Light
ohnehin
vernünftige
Hôtel
performances
emphasised
inte@@
Kräften
nötige
erörtert
ords
zentrali@@
rubber
shar@@
qualifizierte
Geschäft@@
partnerships
hersteller
Besteuerung
sheit
lakes
fate
Erfolgs@@
beizutragen
Sarkozy
chens
teacher
Bosnia
consult
chambres
essions
Äußerungen
Angriffe
incentive
decent
rob@@
Gipfeltreffen
Additionally
gelei@@
experim@@
wendung
versicherung
Def@@
450
Spi@@
flag
einzugehen
folglich
capture
krieg@@
Motto
bureaucratic
fühlt
Capital
theat@@
Unterzeichnung
Gulf
plac@@
treaties
girl
getötet
meldungen
Bewältigung
ś@@
endem
sear@@
lesson
wü@@
Wettbewer@@
ль@@
basierten
Feli@@
aven@@
gains
uma
Simp@@
bürger
Sä@@
Erforder@@
fehler@@
bür@@
Kapit@@
realistisch
ktivität
heu@@
fliegen
Lobby
Kapazitäten
Premium
scenery
ailing
unterbreiten
Host@@
thoroughly
Call
vigor@@
zentr@@
spiegelt
supple@@
ministeri@@
Kongress
klär@@
belt
prim@@
ally-@@
rupt
EST
eva
ght-@@
Leu@@
piano
Lou@@
Höh@@
Konkurrenz
solo
vernünftig
pursuant
plates
raises
amending
plurali@@
ulen
kirche
ace@@
deutet
Angeles
rel
Bedienung
Everyone
deliber@@
1978
bilder
х
doctor
hypo@@
verkün@@
chro@@
änder@@
mp
tangible
Frü@@
angeblich
Ibiza
Anhörung
Aktivität
plain
schil@@
Release
enlarged
Güter
Büros
develops
Anna
ungeh@@
1967
orientiert
komplex
Vorfeld
glei@@
grand@@
konzipiert
may@@
shots
swit@@
Buchungs@@
indu@@
Datenschutz
Kabel@@
S.A.
globaler
Natural
Ähn@@
lehnt
Schlag@@
zierung
distor@@
Energiepolitik
ältere
Vorgaben
breathtaking
Inspe@@
Verteidigungspolitik
schließe
bilateralen
Karriere
verschmutzung
Ath@@
Beschäftigten
Four
Flugzeug
Millennium
institu@@
cum@@
teilten
stoß
differ
erwähnte
Kaffe@@
Programmi@@
discher
namens
interessi@@
flowers
CI@@
Attraktionen
strange
Sher@@
Spit@@
achtung
circul@@
fizi@@
drafting
ota
preliminary
challenging
befrie@@
8,@@
gabe@@
compo@@
buil@@
übermittelt
guides
Feld@@
Komit@@
lingen
etz
vre
Merk@@
fold
predic@@
nachdenken
favor@@
signature
Städ@@
tiefe
Heating
paintings
steuerung
isolated
Regulierungs@@
digte
SH@@
europ@@
Wort@@
Bezahlung
Tut@@
2007-2013
sons
stati@@
ausgesch@@
ired
Young
fig@@
Whit@@
CC
traums
scann@@
talked
pharmaceutical
spei@@
Nonetheless
arity
Palestine
voran
photography
21st
tailored
etzung
damaged
Lasten
schrittweise
frucht@@
inbegriffen
verantwor@@
Zimbabwe
torate
Luxus
labor@@
wra@@
Missbrauch
aufgerufen
jet
verzö@@
ethnischen
detaillierte
finances
Wissens@@
Catal@@
incredible
Mittelme@@
aktualisieren
Parliamentary
bone
entrepren@@
irgendwo
MS@@
endgültig
runde
familien@@
verwalten
3D-@@
hop@@
stipul@@
regulate
brech@@
reiz@@
conveniently
executed
Optimierung
ε@@
Prävention
activated
läne
Luggage
24-Hour
Communication
benef@@
dental
einhalten
austau@@
Fluggesellschaften
ysteme
empfin@@
CAR@@
eingerichtete
tress
ver-@@
zielen
centrally
strengen
füh@@
acknowledged
engineers
Tanz@@
nisses
Abenteuer
erb@@
kontrollen
zips
formul@@
Koordin@@
schnei@@
Flugzeuge
acquire
örtlichen
Iraqi
TER@@
celebrate
Tom
pedi@@
wahl@@
begrenzte
Papier@@
deemed
Hitler
Ecke
abund@@
Fähr@@
statistical
rations
Frühjahr
associ@@
erfolgte
amo
lick
Lehre
Flexi@@
35@@
Besitzer
internation@@
samkeit
Pass
nah
derartigen
forcing
istischer
Hügel
finest
Sper@@
eras
Dritter
bread
konstitu@@
beabsichti@@
holders
tetes
brenn@@
Unternehmen@@
tering
consequently
tless
forums
aggressive
-in
во@@
ignored
Hir@@
exklusiven
battery
kali@@
oul@@
beruhi@@
dete@@
characterized
controller
gutem
Regimes
sicherungen
login
Ric@@
interview
Kernel
aktion
derived
circle
nonetheless
compare
gefährliche
gefährlichen
ça
About
sst
asen
Climate
blatt
demographic
promo@@
militär@@
ston
islam@@
ehrgei@@
bra
Tempo
keen
LCD
peak
themes
griff
lav@@
vorgesch@@
Eigenschaft
Tool@@
thal@@
Abstimmungen
connecting
vity
angeschlossen
beurteilen
DIN
gulierung
registriert
Regionalpolitik
lea@@
Übereinkommens
dlichkeit
sporting
File
vermögen
phot@@
provin@@
aufgaben
ann
ebs@@
Darin
Übersch@@
Transaktionen
score
exchanges
übergeben
eigh@@
haven
zten
Lehren
checking
forderte
discre@@
Konta@@
declarations
Right
Panoram@@
gy
erfolgreich@@
Dienstleistung
Reserv@@
verbesserte
Hannover
seaf@@
Hektar
größerer
secured
Gerä@@
founding
fertigt
unden@@
aya
Subventionen
konto
az
Besuchern
Öko@@
ggling
deutscher
Classic
rhyth@@
Bewegungen
surfing
Ufer
erei@@
schol@@
schlechten
Zurück@@
Entspannen
KO@@
Gegenwart
Einkommens@@
kurzfristig
realized
Justiz@@
lege
devi@@
grenzüberschreitende
beiträgt
Katastrophen
verwen@@
Advanced
angen@@
discipline
fought
bedien@@
konsequ@@
onder@@
begleiten
ani@@
SMS
licence
unlike
Alpine
tool@@
ähn@@
Beratungs@@
Parks
halts@@
hervorra@@
erreichte
Schengen-@@
surprising
foods
skilled
Soweit
adjusted
cheese
rid
searching
Touren
abhängi@@
kritisiert
würfe
environments
realisieren
abschließend
dez
biegen
nehm@@
pain@@
kultur
änderung
verän@@
mithilfe
gewisser
neben@@
qualifizierten
ption
Entdecken
recei@@
ministerium
Spring
esischen
01.@@
Übersetzungs@@
walks
expressing
propri@@
bie@@
TEN@@
prohibited
unterbreitet
DL@@
gigen
partei@@
INTER@@
falschen
funk@@
jack@@
Indonesia
Lanzarote
Konjunktur@@
hit@@
Sign@@
Taus@@
interinstitutional
-Seite
confusion
spre@@
149
reiben
Deep
Ball@@
Inst@@
bevorzu@@
acknowled@@
fears
schrieb
Schatten
dominated
Trends
victim
Gefängnis
recycling

vorteil@@
restrict
Subsidiarität
telling
UM
ext@@
twenty
mäßigkeit
integri@@
Leh@@
downloading
erinnere
mie
Betroffenen
Erwer@@
anticip@@
unterschie@@
ligt
ungere@@
optical
deri@@
gangenen
Vereinigung
Pflege
gewinn@@
of@@
akzeptabel
Vergnügen
erörtern
geordnet
nic@@
evolution
1982
pregn@@
coordin@@
Clearly
Products
kulin@@
eco@@
Metern
gym
simpli@@
monitored
denti@@
Zimmerservice
musik
wording
Vermittlung
tells
beth
guidance
korre@@
Discover
acquis
branches
schläge
gewünscht
्
plas@@
Siehe
1975
Kurse
Sand
36@@
Display
dependence
Wille
multimedia
monat@@
interessieren
recip@@
gebi@@
herrliche
prominent
strenge
teter
ratifiziert
Gepäckraum
complexity
Gewinner
regrettable
beizu@@
Stor@@
geschlagen
Futter@@
elemente
ausführen
enttäuscht
äle
setup
Anweisungen
üblich
ysi@@
gesetzte
berühm@@
koh@@
spiritual
dom
beobach@@
Zuständigkeiten
nö@@
schlü@@
agentur
ermutigen
womit
translations
Fro@@
dein
MAR@@
außerord@@
Socialists
Generaldire@@
Picard
erläutern
Macedonia
solide
eling
einher@@
Head
elektron@@
DH@@
Supp@@
stood
abri@@
pfung
Reaktionen
CAD
pos
economics
unerlässlich
visi@@
Regul@@
genehm@@
kommende
rechtfertigen
Aktualisierung
thoughts
Referenz@@
sexuellen
she@@
undertakings
Interface
Vorsitzender
beschei@@
sustained
Hence
Jackson
15-@@
engli@@
stecken
defense
automated
Laser@@
ahlen
dent@@
Cold
hierarch@@
Überarbeitung
argu@@
reichung
dner
Onlin@@
vorange@@
Wiederauf@@
tägliche
bist
deck
Learning
Studien@@
indication
onie
bid
70@@
positionen
Aff@@
kritisch
stän@@
erhö@@
negativ
lean
langes
steckt
survive
energ@@
japanischen
dell
Bilanz
leiter
Radio@@
manifest@@
5th
News@@
shortcomings
Norway
Arbeitsbedingungen
würdige
90@@
Genuss
Barcelon@@
fris@@
blä@@
Dienst@@
Sometimes
transatlantic
pione@@
Gemäß
subsidiary
Freiwil@@
aps
handels
Citizens
centrali@@
beschreiben
Arbeitnehmer@@
unzu@@
derten
L.
Nature
dou@@
span@@
estimates
unt
inters
meistens
erzielten
Labor@@
näh@@
treff@@
zigen
tiv
haftet
Textil@@
Parlaments@@
VO@@
Internation@@
ishes
belonging
gie@@
isl@@
entscheidet
Sevilla
Bewertungen
condemned
lacking
Andr@@
semi-@@
survival
RI
Wach@@
Gestatten
ense
Realisierung
seminars
ansonsten
Tochter
vorn
Meanwhile
lohnt
reduces
essed
Streit@@
seg@@
backs
Arzt
debat@@
fach
hyper@@
Mili@@
DI
hoped
bian
Schwimmbad
Hotelsafe
berufliche
fisch@@
registrieren
editing
C5-0@@
Armen
notion
Word
Inde@@
reverse
geholfen
weißen
oting
view@@
Close
taught
tail
B.@@
enters
Spec@@
flav@@
veget@@
trails
administ@@
Zufriedenheit
Kaiser
ow
schriften
governed
excellence
mirror
erläutert
Autoren
widri@@
Victoria
Lido
alpine
bevorstehenden
hüb@@
weich@@
Cham@@
unfortunate
Israels
Buenos
sums
Zusammen
separately
Spezialisten
beleu@@
fizierungs@@
unzureichend
aves
Aires
Danke
Branchen
Güter@@
accepts
ECO@@
ensured
upcoming
Naz@@
Dikt@@
List
Stadium
autonomy
gewachsen
Rep@@
ques@@
mining
Aufenthal@@
Easy
distri@@
married
Vul@@
Under@@
kte@@
LateRooms.com
stätte
inhal@@
expec@@
Abstimmungs@@
Weltbank
Sir
zeigten
lit
kas@@
ausgelöst
grundlegender
Wall@@
erial
emer@@
block@@
cau@@
golden
Econom@@
Herberge
3.0
rul@@
Fot@@
rant
feels
exceed
ökonom@@
vorhin
Chal@@
Anreise
verwöhnen
Tisch@@
Weiterbildung
ritt@@
accu@@
Hoff@@
gged
liberalen
Anregungen
Rande
outset
sens@@
verhäl@@
6-0@@
Roman@@
Palästinenser
sert
samen
fluss
fts@@
fel
returning
Orts@@
adel@@
litten
tape
zeitig
erneuerbare
Verantwortlichen
Gipfels
ions
erfreu@@
tam@@
racism
exerc@@
lens
sibly
gerweise
amend
Stein
ypen
Dim@@
mündlichen
bedenken
Gesprächen
tiven
Heimatland
halb@@
wachsen@@
tika
Büro@@
deser@@
Them@@
Vertei@@
gge
erworben
Europa-@@
Tragödie
Wü@@
inen@@
Ltd.
mani@@
resorts
circulation
migrants
künstler@@
aten@@
Apache
insp@@
age@@
Taxi
drafted
Trink@@
immense
Abstand
Karten@@
Müller
Beruf
amen@@
Enter@@
exceptions
ular@@
brain
Wochen@@
cheaper
Verträgen
Benutz@@
unlikely
begeistert
ousness
Philipp@@
händler
departments
ignoriert
Fif@@
verwaltet
Manche
Baby@@
keinesfalls
Non-@@
incorporate
seits
Mitglieds@@
Ministerrat
Erkenntnisse
filling
Jazz
boy
Gewerkschaften
Army
Declaration
lon
13.@@
spit@@
fault
idealen
inge
weiterzu@@
fur
abandoned
ament@@
tionality
nutzbar
teilgenommen
invitation
Territ@@
delicate
Juan
flash
droht
ürzt
endo
ökologische
Currently
torture
Abschluß
simplify
schungen
rän@@
gkeits@@
gi
Moskau
Gru@@
Nicht-@@
geom@@
Lebensmitteln
Buddh@@
HR@@
Budgetary
Tschechischen
Building
kore@@
Wikicars
grew
verhe@@
Privacy
Pierre
perc@@
fund@@
atmosp@@
inieren
cion
potenzi@@
arge
Gesellschafts@@
angeben
Verhand@@
äd@@
Dynam@@
therapie
alogue
Tee
bezauber@@
Essen@@
Horiz@@
Übersetzungen
follow-up
inations
ium
Zug@@
Voyager
thr@@
Sowjetunion
Amtszeit
responses
schützt
kot@@
Lebensqualität
orten
bekräftigt
wan
til@@
implemen@@
Effekte
Beruf@@
inquiry
dreht
Watch
verdi@@
Massa@@
Steuer
speich@@
Anhang
advoc@@
crossing
vine
makro@@
allies
eingebunden
calculated
yn
Patent
show@@
publicly
badly
frist
Aktien
Erkenn@@
jeweilige
reichhal@@
verabschie@@
accepting
demonstration
grüne
Milosevic
roughly
aga
Fahrrad@@
IE
preferences
Jak@@
ourcing
Christ
sher
exploring
Unterdrückung
zeuge
Above
ältesten
reale
inning
vorkommen
conjunction
grants
ION
styles
T.
bath@@
infringement
angefangen
bauten
Wales
simp@@
haltenen
rejection
ul
daughter
vegetables
bands
large-scale
Wartung
attract
mathemati@@
Empfänger
Mittelmeerraum
Litauen
fusion
Libya
betrag
exklusive
ale@@
penalties
dangers
utzen
arab@@
Franz
ungeachtet
Einzelnen
gesell@@
Unabhängi@@
internationales
einzelner
Clinton
Chr.
irgendwelche
discovery
Boh@@
Panorama
Aufforderung
gegenseitige
unification
Avenue
Investition
monthly
failing
Ein-
Breit@@
crip@@
Palazzo
Renten@@
Naturally
1976
Buffet
orte
fertigen
characterised
bal
moderate
desper@@
celebrated
landscapes
Tyrol
ι@@
mitgeteilt
indirect
pragmati@@
eingerichteten
Integrations@@
Fat@@
D.@@
troub@@
jects
arte
modes
defects
einheit
GBP
landes
glu@@
Behin@@
aciones
expan@@
gesunden
izz@@
Erzeuger
Heiligen
Cher@@
klassische
orca
advent@@
real@@
mou@@
DIE
conve@@
lessly
conci@@
Schattenberichterstat@@
Sard@@
chocolate
trademarks
doctors
Problem@@
line-@@
Kinnock
time-@@
pin@@
Umweltschutz@@
Rahmenprogramm
00-@@
ganz@@
rot
vereinbar@@
gelung
1968
hiermit
lehnen
stritten
Saudi
Medical
ror
RI@@
Service-@@
ographic
plä@@
ausger@@
Dir
Kathedrale
ria
Arbeiter
VE
umfassen@@
gewählte
kompletten
Wachstums
alize
Ausstellungen
Finanzmärkte
Gl@@
freundliches
Schlei@@
combining
Erste
GP@@
Play
.The
requiring
Indem
Libanon
beträchtliche
right-@@
gru@@
spruch
reductions
analysieren
substan@@
Journ@@
geführten
athle@@
Universal
organ
Archiv
überwiegend
lah
Cav@@
Neph@@
poss@@
breaks
riesige
öffent@@
einheiten
ordnungs@@
streaming
pothe@@
Cultural
Bron@@
eits@@
eded
Albania
deinen
reinforce
Heran@@
Lösungs@@
wenigstens
ruhen
deleg@@
fiable
Put@@
Heritage
separated
skep@@
announcement
verkauf
reine
ßer
backed
quarters
Terra@@
bases
assumed
minds
zurückkehren
Working
Azer@@
sprachigen
humans
Alpen@@
receipt
Yu@@
embedded
Import@@
interim
Einschränkung
Zauber@@
Adap@@
hinein
magne@@
rolling
Betriebssystem
sett@@
Analysen
alliance
elson
Einwohnern
freies
GF@@
tü@@
clothes
quantities
währ@@
einzubeziehen
gesellschaftliche
homepage
zusprechen
Wikitravel
kompatibel
kunst
tories
enemy
Unterhaltungs@@
Soft
Tennis
Sak@@
implies
cool@@
ulated
weekly
fires
enorm
ison@@
Schnei@@
Hill
messer
deleted
verschiedensten
zerti@@
Finanzmittel
pursuing
master@@
continually
slau@@
API
Lodge
Esp@@
Mazedonien
stro
COM@@
vergleichen
orian
verband
niederländischen
ails
exhau@@
traum
Gitar@@
einzuhalten
Fab@@
Kun@@
gebühr
Stro@@
Gerichtshofs
bezogene
shareholders
masch@@
wäh@@
einziges
inher@@
Ern@@
atorium
concentrated
Entschließungs@@
aufweisen
konsolidi@@
Peru
bte
oth
unlimited
Kandidaten@@
Logo
OP@@
Coast
sl@@
muy
zip@@
Arzneimittel
confron@@
loo@@
votre
bten
Water@@
simplification
Brief
ernste
Jahrzehnte
unprecedented
identical
abwechslungs@@
coinci@@
weigh@@
transformed
konta@@
Ji@@
beider
ssel
Haushaltsplans
LED
notwendi@@
Frank
steigenden
rence
äufe
verschieden@@
yellow
übersetzt
Siena
föder@@
Legislativ@@
tip
ogra@@
subscri@@
impres@@
exo@@
observers
horizon@@
Planet
kos
konz@@
Ear@@
Moderne
verträ@@
wirkungen
AV
ric
Ast@@
Mü@@
Barack
Moh@@
engagi@@
presentations
lossenen
undertaking
Fahrzeug@@
Kabel
rem@@
Chef
pfe
ion@@
Konsultation
interaction
ety
Montage
sprä@@
respecting
oes
Verkäufer
Ratsvorsitzes
Dach
defending
denied
68@@
labels
gegenseitig
ständigkeit
reibung
allow@@
adher@@
ahr@@
Temperaturen
partition
Wahr@@
compatibility
US-Dollar
herz@@
p.@@
orie
Zo@@
genehmigt
Zwangs@@
Autor@@
bench@@
vereinfachen
eu
Ré@@
Ausfahrt
culinary
Therap@@
Niemand
agements
evil
glich@@
Kron@@
klarer
Rav@@
Baro@@
reiterate
gres@@
herauszu@@
Stich@@
4th
Kaz@@
continuation
sightseeing
peace@@
ha-@@
Disk
rs
bran@@
Frank@@
hilfen
thos
bliche
mad
announ@@
securities
expor@@
Ris@@
rus
unteren
radiation
tv
risen
lot@@
nau@@
participated
vorherigen
Tot@@
wake
charter
PSE
Weihnachts@@
bathing
Limited
Anhänger
Initi@@
lech@@
Instrumenten
örung
bration
frisch
Superior
kultur@@
spartn@@
Betre@@
Altern@@
nennt
ssel@@
ois
Sozialdemokraten
tradi@@
kenntnis
Provin@@
up-@@
FIN@@
as-@@
winners
zerstör@@
profound
schluss
disch
fak@@
Danube
U-Bahn
hat@@
198@@
eating
nen@@
extrem@@
Bisher
shire
sicherheits@@
PDF-@@
Semin@@
konsul@@
tener
Temperatur
Halbinsel
Fitness
jähri@@
wendungen
mieten
underline
trauri@@
Marbella
listened
kommens
WE@@
pin
gaming
Vent@@
globalization
RES@@
Plu@@
Scheitern
kennen@@
refined
solving
forderten
Age
anas
practi@@
jährliche
5.000
erhol@@
gefällt
Autonom@@
Inhaber
chester
beglei@@
radio@@
permanently
heik@@
ausgewo@@
Credit
analyses
antrag
Standard-@@
dam
suddenly
fertig@@
bekanntesten
schrieben
xx
Premier
zuverlässig
vorherige
Store
löst
untergraben
quota
Eisen@@
Europa@@
denselben
Entwicklungszusammenarbeit
optimum
ausgewogenen
einzel@@
commonly
banned
Luf@@
ssigen
Auslegung
sorgfäl@@
adaptation
jan
Bug@@
gekauft
FAQ
qualitative
Repräsent@@
urban@@
enthusiasm
dedic@@
Flüge
rier
gerichtete
Stattdessen
specialised
Medizin@@
Ursprung
influenced
Sales
sont
annte
stau@@
gericht@@
Mun@@
gent
hl@@
e.V.
investigate
ि@@
ри@@
berechtigten
Ira@@
thilfe
dged
test@@
Manhattan
Kontin@@
Absichten
bien
kommerzielle
multilater@@
Hochschul@@
consolidation
backing
newspapers
bewähr@@
dazu@@
mails
adly
wohn@@
Fig@@
gli
konfli@@
Could
quantitative
ï@@
Dé@@
ende@@
salt
VIP
rain
Industriel@@
rivers
Geschäftsbedingungen
engagiert
unterhalten
Kup@@
ML-@@
niedriger
menten
ambience
districts
Nä@@
Richtlinien@@
orious
Que@@
Material@@
inal
quer
teenth
Sep@@
hops
Med@@
digten
ş@@
stanz
computer@@
begangen
Verstärkung
complimentary
invested
Verhältnisse
Partei@@
weis
aktivitäten
ны@@
Entstehung
samer
EMU
scienti@@
officer
group@@
tackling
durchgeführten
Überwachungs@@
ilt
Add
vernachlässi@@
beat
iser
Ernährung
Singapore
beeinträchtigt
Key
längere
harte
streit@@
idealer
vicinity
Segel@@
sac@@
awar@@
Berater
verehrten
Leidenschaft
chner
Ank@@
leitet
accused
ook
ш@@
Eigentümer
MD@@
versetzt
wichti@@
activate
Camp
restoration
Befehl
Dienstag
abgesch@@
ATION
ceram@@
Marketing@@
pren@@
lief
ain@@
र@@
-TV
refurbished
etric
aufgehoben
iere
auswärtige
camping
Küchen@@
trig@@
Vizepräsident
hebt
weitreich@@
ment-@@
Marktwirtschaft
toi@@
mysq@@
consisting
kill
tening
Geschenk
rows
gelang
is-@@
lending
schaden
Broad@@
isiert
shof
murder
Bedingung
ore@@
dot@@
gross@@
vermis@@
suspi@@
l.
linguistic
eness
aters
programmi@@
Ring
CAN@@
tiny
Implementierung
vorsichtig
Schre@@
jahres@@
anspruchs@@
sämtlichen
Kernkraft@@
luggage
Castell@@
Perspektiven
amtierender
earned
effektiver
porno@@
-Spe@@
Diensten
RAM
Partnerschaften
Press@@
wiederhol@@
größt@@
Wolfgang
etta
ems
epide@@
Shar@@
Berichterstattern
CP
ungarischen
debi@@
stabilität
esslich
excess
äußerster
durchsetzen
Hyper@@
ò
häusern
pend@@
zon
schneiden
Komplettpreise
erober@@
verhältnisse
air-conditioned
ROM
bezahl@@
waves
Four@@
photo@@
Internetseite
inia
SV@@
striking
Schwan@@
Gate
bricht
Chicago
Italien@@
Harbour
degra@@
verhandeln
sharp
bewertung
maker
inser@@
Kreis
Fleisch@@
wäs@@
Hist@@
Rather
short@@
dn@@
Flug
aufwand
schnitte
founder
führender
bedingt
revenues
wissenschaften
Tunisia
Profi@@
adv@@
bir@@
Fund@@
ambitions
vermu@@
iken
wirkung
glück@@
achte
knowing
lager
demanded
upgra@@
configure
Cour@@
Gäste@@
aket
lay@@
Passagi@@
beseitigt
Grafiken
Wör@@
tagon@@
unterliegt
lück@@
Toi@@
Uhr@@
isolation
befürworte
zahlreicher
fet@@
dive
Quoten
competitors
friedlichen
Swimmingpool
Fili@@
DVDs
tab
Vorsitzende
projekten
commission
villas
vement
Schmu@@
ausgelegt
hausen
Slowenien
Initiativ@@
orn
geho@@
contributes
alties
ernden
clin@@
strive
Bosnien
schlage
drück@@
mond
Thermal@@
magnetic
Abu
ation-@@
Luxus@@
Lev@@
dging
profiles
Fragestunde
user-@@
Mid@@
excee@@
ware-@@
verwand@@
deriv@@
Variante
abzielen
dus
harm@@
gleicher
arrested
Jugoslawien
Gelände
Koordination
stärkeren
Slo@@
cycling
aufeinander
Junior
Marine
Stahl
Arm@@
17.@@
Wärme@@
gefasst
Ausgang
gebrochen
colonial
inj@@
PX@@
Präsidentschafts@@
alive
teria
Magic
carrier
schlechter
officers
allen@@
überlegen
mitzu@@
motivated
Zugleich
einzigartig
rescue
errichten
gebilligt
Aktiv@@
differently
Ernst
amerikanischer
ss-@@
tedly
Ras@@
Aktions@@
baro@@
charman@@
fai@@
diensten
Feuer
Deut@@
Kohärenz
part-session
1981
Himm@@
Whirlpool
ide
employee
cca
jähriger
pact
sweet
Ze@@
niedrig
duction
straßen
clearer
emotional
hosting
freiem
lifestyle
Ernährungs@@
Kamp@@
scho@@
Beendigung
Freizei@@
warranty
congratulations
R.
discrimin@@
seminar
Luftfahrt@@
EU-Ebene
Annual
rachte
Skla@@
ne-@@
acher
Freih@@
nick@@
inspiration
destabili@@
zusammenzuarbeiten
rasche
Aufwand
practic@@
Textes
Hop@@
&apos;d
modest
nowadays
Ankündigung
unkte
Wiki@@
gter
Mount
Zahlreiche
schnelles
databases
kin
eira
verbrau@@
u.@@
Reb@@
dogs
Isch@@
Hierbei
sendet
Verbrech@@
lows
brutal
analo@@
pis@@
stärkt
tausende
regelmäßigen
Dau@@
tch
partially
pré@@
problemati@@
owing
Juli@@
jec@@
Korrek@@
Kali@@
capability
Engine
Bosni@@
Wetter@@
differ@@
Tipps
Famili@@
insu@@
circuit
Kredite
distribut@@
materialien
Minimum
ICH@@
strö@@
extern@@
anded
Caribbean
startet
Gesetzes
personenbezogenen
lower@@
Ero@@
Verein
bestimmung
Bali
lands@@
196
E-Mails
verleiht
railways
vul@@
usses
Europä@@
Gew@@
Grande
bears
permits
ule
Beobachter
distinguished
notification
Fut@@
Residen@@
Migrations@@
Einheiten
ttes
stom@@
designers
currencies
talent
Camping
Charak@@
ultra@@
diesmal
16th
Gegenstände
Banken@@
Opfern
formula
malerischen
wofür
Isol@@
brother
Klaus
ovo
schiff
Loc@@
schön@@
PRO
Spuren
gelöscht
exploit
Besonderheiten
Hur@@
kontroll@@
einzurichten
ardi@@
abkommens
round@@
belegt
Blick@@
Thai
finanziell
schaftlichen
han
Head@@
Palästina
vielfalt
Ruh@@
ae
neueste
ensystem
deny
bew@@
tzei@@
perf@@
besticht
query
versuche
irgendeiner
portugiesischen
Oslo
Ereignissen
Theater@@
open@@
trademark
agieren
obtaining
veranstaltungen
bö@@
Vergleich@@
Produk@@
streichen
Architekten
gäbe
render
palace
hs
vielfältige
regen
four-@@
tight
у
Granada
beliebten
authorisation
glücklich
Aussichten
Eintritt
Dich
Portu@@
eingereichten
simil@@
elabor@@
roles
.com.
einzelstaatlichen
asks
electronics
yl
removing
Auseinandersetzung
comforts
HS
emble
trock@@
besetzt
faßt
intensiven
aca
appreciation
explicit
deta@@
nördlichen
Queen
Demon@@
Ton
clou@@
biologischen
Hz
transmitted
nas@@
sitzung
erieren
män@@
1973
avy
embar@@
Infe@@
Retur@@
panels
inequality
fits
2014
use@@
independently
zent
auszuüben
Rechnung@@
Yor@@
entstand@@
sinn
ffene
Rental
fruits
gerei@@
begrenzten
Mehrwertsteuer
effektiven
Euros
Deine
alling
Prac@@
europä@@
Elementen
authentic@@
gehörigkeit
ber-@@
Gelegenheiten
Meer@@
Schwimm@@
Reihenfolge
gerechten
encounter
Continu@@
vention@@
rice
assessments
sim@@
datum
Verzögerungen
igkeiten
festivals
Stadtteil
mailing
verstoßen
grave
stakeholders
zerstören
Benjamin
stunden
1983
Future
align@@
plugin
Zins@@
Fehlen
Wachstumsp@@
Technologi@@
harv@@
einmalige
translate
check@@
Bildschir@@
rez
atur
Nie@@
boarding
Zinsen
3-star
cultiv@@
Zut@@
Vorbereitungen
schwerer
acking
you@@
kanz@@
cap
mounted
Cube
fossi@@
220
konstruktiven
safely
woods
Entertainment
Clo@@
Kommissare
tensions
Verzögerung
Grö@@
cat
verankert
repa@@
mengen
struck
OG@@
gathered
wire
shr@@
embran@@
gesunde
CO2-@@
Pad@@
-System
Eintrag
ichtet
perman@@
jer@@
gear
Kanal
lli@@
attri@@
Datenbanken
ocean
Soli@@
laboratory
investigations
chal@@
atories
nützliche
ug@@
infra@@
Top-@@
Sorgfalt
berg@@
investing
Anders
anxi@@
Guar@@
bey
Frage@@
vy
scenes
unk@@
rative
Bür@@
gericht
geschwindigkeit
üben
Entschließungen
aufrechterhalten
accountability
Listen
Juden
schlimmer
sé@@
Moldova
hectares
Ess@@
0.00
capacities
Flotte
utility
weren
endete
awards
Ord@@
verbesser@@
170
tournament
schulden
Flughaf@@
Empfän@@
Awards
tron@@
Untersuchungs@@
witness
müsse
infec@@
stabile
aterie
leidung
bestä@@
Vogel@@
1960
zukünftig
warmen
Summer
menü
anbietet
Freien
orient@@
ermitteln
ynn
TU@@
2000-@@
featured
Benach@@
mid
Merkel
ignorieren
recover
conscious
onischen
schaf@@
EX
observations
classi@@
raff@@
Än@@
atz@@
ess-@@
fortable
verfüg@@
stringent
spr@@
Henry
Dy@@
dä@@
breites
sser
boundaries
ellem
MAN@@
Blin@@
DEN
scenario
auseinander
Gemeinsam
ouring
Legitimität
zumal
intim@@
press@@
Selb@@
Job
extends
kilometers
exquisite
Steu@@
climbing
flüge
zustand
Festi@@
seekers
Beweise
towels
Theatre
türkische
Mountains
Eigentums@@
klares
cinema
kenntnisse
inary
Genf
distribute
it-@@
blau@@
Impulse
HR
Between
TC
shoes
Kompromis@@
zauber@@
verliert
sexuelle
heb@@
griechische
erw@@
hide
gerichteten
enrich@@
junger
allo@@
Bremen
verständ@@
Aufruf
Monta@@
amm
preventive
1974
Organen
Let@@
verm@@
fec@@
Algarve
gele@@
touched
krie@@
kauf@@
eption
giert
Outlook
finanzieller
household
speaks
Relations
NG@@
Begriffe
Adriatic
Gun@@
ologically
Christen
dago@@
mos
pati@@
host@@
alia
21.@@
esen@@
Sant@@
luck
titles
bewe@@
dentally
Tendenz
Spirit
verhandlungen
zukunfts@@
appen
analysiert
Gebrau@@
Kommissionsvorschlag
firmen
ind@@
PPE
Simply
bereitzustellen
profitable
luxuriöse
cting
Große
fifteen
größtenteils
Konflikts
wolle
promotes
wenigsten
Arbeitsweise
wedding
sanc@@
Fün@@
sson
Spei@@
studios
bedauern
negle@@
reb@@
DVD-@@
zin
Frattini
lern@@
Integrität
unmittelbaren
countless
Tokyo
menus
younger
mari@@
vie
coalition
finishing
mehrerer
andt
gewiss
Manchmal
Acht
erbar
verschoben
stimulate
damaging
Sekre@@
authenti@@
ranken
Diagno@@
verschieben
fabri@@
constraints
Geschle@@
supervisory
zö@@
genauen
reser@@
levard
Reichtum
interessan@@
installing
surplus
Veranstaltungs@@
erlau@@
adequately
first-@@
ritt
Converter
bat
mittag
phy@@
Partners
cha
afterwards
Elektron@@
theast
Erleben
Randlage
Tatsachen
ints
trü@@
Frieden@@
bestellt
Grupp@@
free-@@
Kluft
Effektivität
Forest
Mou@@
18-@@
Trennung
ec
Golfplatz
belgischen
Abgesehen
cooling
euro@@
entfer@@
unterstreicht
Sax@@
Prü@@
Kopie
Folglich
gin
scra@@
vorne
angehören
musicians
besides
-in-@@
rift
consulted
collections
emissionen
tainer
ATA
geeign@@
Wahrscheinlichkeit
jud@@
gebrau@@
Abonn@@
reicher
angel@@
Bran@@
selbe
flotte
zier@@
Aufträge
starker
divide
Out
template
weapon
pride
Ev@@
E-Mail-@@
Gastfreundschaft
skosten
reaches
seaside
ecke
Kim
wünschenswert
fic
Estonia
tico
aken
Rosen@@
fälsch@@
begreifen
thor@@
Jews
bia
16.@@
wandern
TAC@@
ellen@@
stitution
Män@@
delayed
dreams
terror
gischen
15th
joy
landwirtschaftliche
ulieren
temperat@@
class@@
Hierzu
Cross
vineyards
Trag@@
Maus@@
washing
wissenschaft@@
summary
feelings
Holy
sail@@
Tap@@
bloo@@
umfassendes
ie-@@
hôtel
schuldig
Armuts@@
endung
Argentinien
Jur@@
verknüpft
flan@@
Seever@@
Adam
retro@@
unanimous
asiatischen
bedeutendsten
interpreted
Workshops
killing
esp@@
Weißbuch
Energieversorgung
cus@@
zutiefst
nähe
hn
o.@@
elite
qualities
ühle
rägern
gases
Vorbild
ausgestatteten
unvergesslichen
atte
Stabilitäts-
fristig
ь@@
gipfel
reiter@@
eux
stattung
dauerhafte
É@@
ordnen
Blut
argued
Kunststoff@@
Garda
indigenous
coherence
Pie@@
Psych@@
Zur@@
fang@@
filters
cine
Eurostat
geschätzt
stunde
Nationalpark
Mountain@@
fat
gewann
wus@@
inevitable
blü@@
schmerz@@
Ausgleich
besseres
saison
Unlike
lok@@
Teneri@@
geklärt
großzügi@@
Deli@@
Metho@@
Inneres
Regarding
Reak@@
repe@@
plying
1500
reib@@
Leid
Defizite
Days
Rechtsan@@
Muslims
parlamentarische
Directors
UPS
Nuklear@@
spell
ity-@@
NOR@@
bereitstellen
wechselt
17th
Rats@@
dictatorship
Lav@@
luxuri@@
detailli@@
boom
SD
ströme
mono@@
opponents
Wechsel
Prix
cam
Mauer
Zubehör
Versuch@@
furthermore
Intelli@@
optimalen
Fortschrit@@
ä
Zwecken
rang
nachvoll@@
sincerely
recover@@
wurfs
friedliche
ebo@@
Fertigung
Versand
lische
schau
PN@@
Prestige
zugän@@
abolition
Jam@@
ы
Menschenhandel
latt@@
verbot
Rock@@
más
engagement
bedeutend
uliert
Dolmet@@
sieb@@
zeitlich
influ@@
reconciliation
umgekehrt
Vorwand
Spen@@
gegebenen
korrekte
Reh@@
reader
Hinsichtlich
eligible
I.@@
Supervisory
ees
mittlung
Business@@
125
neys
ames
ror@@
Jahresbericht
ausbildung
interessen
albeit
tätigkeit
ppen@@
geteilt
mehrmals
umen@@
geltend
blocked
door@@
südlich
beitreten
Tai@@
Veget@@
disman@@
ALE
gravier@@
delivering
Oxford
dimin@@
justification
moon
Friedrich
tained
Ultra@@
sendung
Mary
Spielraum
Excel
indispensable
ermaßen
institutionen
Rimini
Vermeidung
Being
Privi@@
realised
DJ
veter@@
therap@@
Zäh@@
Klar@@
elegance
Geschlechter
Alpha
lägen
LateRooms
Korean
Sty@@
annt
Provider
lüssen
erwar@@
Funktions@@
Print
erschienen
Sym@@
â
separation
Tunesien
assungs@@
leihen
Zulassung
krank@@
außergewöhnliche
PC-@@
nik
veaus
helicop@@
anstelle
ertem
lez
otel
lap@@
müßte
essive
Fischer@@
Erreichen
conviction
resistant
umen
Leistungsfähigkeit
gesun@@
Clu@@
prüfung
gefolgt
Krieg@@
Religions@@
suspension
klausel
Beachten
chemischen
betrug
korrigieren
Exhibition
in-depth
gehörte
Sky
Ny@@
stroll
Zusammenbruch
übrig
acken
mort@@
explanations
Touristen@@
Plugin
stit@@
pipeline
Territorium
teri@@
ßte
Voraus
unverbin@@
ailed
turn@@
aders
Pfei@@
interfaces
bec@@
Cot@@
crystal
entworfen
wunderbare
ignor@@
singer
Alm@@
strafrech@@
cements
untereinander
wesens
og
KOM
races
beha@@
Schal@@
durchgesetzt
taten
bereichs
ausgebaut
ölle
Wurzeln
bietern
clarification
Neuigkeiten
Timor
eite
ladimir
Deluxe
Stütz@@
loud
recy@@
Glaub@@
prompt
ruled
strategien
colon@@
noisy
frisch@@
audit
TA@@
twelve
Interview
BAS@@
arran@@
artig
integr@@
bereitschaft
vertei@@
Univers@@
Love

chil@@
out-@@
ahl@@
bub@@
MI@@
Verona
arriving
outer
hung@@
Standpunkte
getestet
servative
bark@@
fici@@
marriage
complic@@
attempted
erc@@
Architek@@
verglichen
mündliche
wuchs
на
genügt
Photo
stischer
decoration
leichten
Möchten
liqui@@
mins
complement
islamischen
Christdemokraten
gesorgt
existed
Zugangs
veröffentlichten
Watson
Transa@@
vorhandene
tram
verbindlich
Allow
1977
stün@@
obo@@
graphical
reproduction
invites
Hav@@
Telekommunikations@@
entities
beliebt
alis@@
am-@@
emandem
agre@@
enjoyable
Refle@@
uten
sav@@
Karel
fache
Offizi@@
Dire@@
Besichti@@
vorangegangenen
runden
single-@@
Komponente
Ganzes
Netzes
hrt
Frankreichs
Abfälle
contest
crow@@
weisungen
schwarzen
esco
dauerhaft
schulen
deeper
gebenden
ger-@@
ital@@
jung@@
acro@@
12-@@
lichung
FF@@
Wohlbefinden
ktives
Shopping
Jes@@
att
Vorredner
inhab@@
Tagungs@@
designated
abe@@
Argum@@
räder
maßgeb@@
scep@@
calculation
undes@@
weitergegeben
keit
FS
Berechnung
await
somewhere
Kro@@
Allgemeine
conditional
trail
Video-@@
systematisch
Maison
lawyers
drehen
Hunger
kurz@@
smu@@
Leonardo
zeitraum
Spr@@
vorbe@@
ssige
critic@@
Materials
Electri@@
endless
bag@@
processor
kör@@
Laeken
gemü@@
schle@@
erschien
decentrali@@
cross@@
ually
mountain@@
wozu
Texas
faktor
belegen
tchen
zulässig
zwangsläufig
consist
Geschichten
Ress@@
cts
Grundfreiheiten
reviewed
stieg@@
Ersatz
Albanien
reinforced
spezif@@
Heim@@
kamera
Ursprungs@@
Festung
lag@@
bann@@
massi@@
Ausnahmere@@
Zielsetzung
Informationsgesellschaft
té
anmelden
Zuerst
Präsidium
aan
autor@@
lässi@@
Anzeichen
passenden
printer
unglaub@@
Rahmens
character@@
Ben
gültigen
electro@@
event@@
Hilfen
avoiding
sag@@
Seh@@
noti@@
quet
Recy@@
Simul@@
packed
org
maß
Deutsch@@
genheit
Ernennung
ausgewogene
tment
Schiffs@@
Sli@@
prechen
Chaos
fehlende
Heb@@
Azur
Libyen
weitem
Carlos
4-Sterne-Hotel
industrielle
five-@@
Elite
co-operation
tick
Arbeitskräfte
counting
Jack@@
beträ@@
Buil@@
Foot@@
Fuss
check-in
anno@@
limitations
förmi@@
Freie
Consul@@
teach
etten@@
ras@@
sozusagen
verblei@@
Schlu@@
hinzuweisen
Cannes
bad@@
fundamentally
ferenzen
Fertig@@
herunter
admission
entiert
Mailand
Zent@@
remo@@
geseh@@
Christians
libraries
defizit
Petersburg
ING@@
Bed@@
leg
Focus
einzustellen
erinnen
Menü@@
hairdryer
Sci@@
expl@@
symbolic
bemerken
unterhalb
gerin
fif@@
Stränden
Enth@@
Mühe
Split
enda
2,5
Respon@@
aufre@@
langjährige
extrac@@
globally
Simbabwe
freundlicher
Mugabe
fischen
Liter@@
Wahrnehmung
brand@@
15.@@
retirement
liquid
Konzert
Erfin@@
Mehrere
Monitoring
Stimmung
autonom@@
Treiber
einsei@@
Betrugs@@
stie@@
porte
distan@@
Kühlschrank
schaff@@
Landschaften
Progno@@
rische
wich
000@@
Child
hunger
Informations-
Stabili@@
hazardous
erzi@@
Sn@@
hopefully
Speicher
panorama
cz
qm
Fertigungs@@
USB-@@
dun@@
DM@@
kommission
diox@@
treibt
ius
symbols
lichten
ielle
ruption
outlined
bürger@@
onte
Friedrich@@
eman@@
SIS
Dörfer
lays
stufen
Somm@@
cargo
bevor@@
Relax
verbieten
Besteller
Train@@
ask@@
pe-@@
HOTEL
Gross@@
laying
Verbindungs@@
fasst
subscription
G.
Facebook
turm
Flas@@
inevitably
legendary
ruppen
Digit@@
vessel
ausgearbeitet
E.
Label
Collection
iker
utive
Krä@@
Abend@@
anstal@@
Rezep@@
ckers
Sämtliche
bikes
php
eable
Binnenmarkts
ürz@@
igrant
incident
religiöse
1950
mean@@
Basic
stechnologie
ausgedrückt
voices
Feder@@
ians
detection
vermehr@@
beautifully
Devisen@@
Gemüse
Mitwirkung
REACH
gl
Solange
floo@@
oods
ranges
abends
year-old
aggre@@
Côte
Konflikten
Songs
on-line
offset
impetus
besagt
openly
Wert@@
delivers
oration
izes
späten
Walter
Ratspräsidenten
shooting
instability
Boli@@
Literatur
supplement
bungs@@
Schaf@@
Ärzte
energie
simplified
Verkehrsmittel
nobyl
Gleichbehandlung
Pfer@@
Tony
Konzerte
advances
spieler
wasn
advocate
erweiterte
generating
Applikationen
Wunder
Dubai
fertili@@
fulness
fabric
intergovernmental
implic@@
ress
Dringlichkeit
antiken
Much
distant
gründet
highway
impro@@
tauschen
benachtei@@
wahrnehmen
Ash@@
que@@
usi@@
Mittel-
Infos
petition
scop@@
ty-@@
schwedische
tale
erschein@@
mming
Journal
Type
arien
prints
carries
Einladung
passi@@
geschätz@@
capitalism
aku@@
bor
ouldn
Schri@@
entwickel@@
....@@
F.
workforce
John@@
dbar
SSL
dust
universe
Kommand@@
Soci@@
inne
anderswo
durchschnittlich
entschei@@
müh@@
Kommentar
inter-@@
tatsächliche
schaftliche
anstreben
änderungs@@
verwirklicht
großartige
dow
traditionell
maintains
zio
verbreiten
tremendous
adidas
Commun@@
Vermarktung
asi
itz
Canaria
eme@@
Geträn@@
Nutzungs@@
abgehalten
ICE
notic@@
stating
Save
xis@@
Fis@@
pläne
Neu
höh@@
cycles
Schwier@@
strand
sensitivity
19.@@
atemberau@@
cris@@
nnen
1969
Later
exceptionally
heil@@
Durchschnitt
algorith@@
ance-@@
Automobilindustrie
systematically
vou@@
Parlamenten
ju
Stellenwert
Visual
Unserer
Feri@@
Though
Statt
manip@@
infrastructures
Panel
Ps
Review
SK@@
Bestand@@
indirekt
ständiges
abili@@
höhe
insight
stir@@
Substanzen
Baroness
ideological
twenty-@@
EGF
christ@@
reasonably
Auswahl@@
aktiver
horses
mile@@
tana
abu@@
mixture
Statistik
prochen
Application
refriger@@
Beton@@
deutlicher
Sensibili@@
brin@@
overnight
worker
wickelt
selecting
fahrzeugen
Petitions@@
eingang
robu@@
Konkurren@@
wende
bewirkt
Vielmehr
restra@@
begrenz@@
benötigten
vorschlägt
mein@@
TEC@@
Teu@@
Finanziellen
betreibt
defiz@@
Round
gezielt
tritts@@
refugee
Bier
resumed
cost@@
booth
Egal
ades
abuses
Anmerkung
newest
häufiger
Peking
pop
Everest
Mitentscheidungs@@
EK@@
Spanisch
Hein@@
privati@@
law@@
mits
tracking
tolle
oxi@@
Energies@@
robots
Annäherung
assign@@
mineral
Gerne
Dr@@
Indonesien
Kandi@@
gau@@
quer@@
container
dele@@
Komple@@
Schiffen
Abwicklung
aboli@@
1990s
Gefän@@
NE
Projektes
Einblick
Jahrzehnt
Zellen
reno@@
vorrangig
shaushalt
borro@@
donors
verschwinden
nutri@@
lying
TNG
verstärkten
rarely
eingeben
Lama
flüsse
leute
evo
Berlusconi
Johannesburg
Verz@@
Begegn@@
abzielt
Eurex
shock
tunnel
Benutzern
Hintergrund@@
pig@@
prevents
halts
adresse
attraction
Viol@@
ktieren
alising
gründlich
skill
pointing
entity
Zugangs@@
And@@
rd
high-speed
ila
harten
Clear@@
Anth@@
defici@@
Welthandelsorganisation
Verantwortungs@@
fließen
Aufrechterhaltung
berge
entrepreneurs
Nothing
Zentren
Gefangenen
CC@@
Künstlern
disagree
einbringen
herself
Airways
erfor@@
tiefen
awa@@
Copy@@
tually
zweimal
struction
Beobach@@
stehe
ingo
Redu@@
opera
integrating
Wag@@
igte
wache
proliferation
Norwegen
incorrect
saubere
yal
sex@@
quiries
Sicherheitsrat
Umstrukturierung
rechnung
schieben
linking
aluminium
Direct
Lanka
befu@@
sident
hinterlassen
Channel
büros
Sofia
advised
ów
Bach@@
matches
Ebenfalls
stoppen
chances
Einwände
fähiger
kommunistischen
UNO-@@
threatening
drücke
asting
Barnier
ausführliche
adjustments
verbin@@
sames
Kühl@@
beantragen
anlässlich
Abweich@@
besitz@@
Behinderungen
personenbezo@@
subjected
kapit@@
allmählich
netze
coach
terraces
enthal@@
Innsbruck
Tourist
WW@@
vereinfacht
chts
buff@@
damaligen
klim@@
rer
Fokus
anfangen
bekam
defeat
veröffentlichte
artier
layers
dents
Treibhausgas@@
aka
beliebtesten
Ansätze
enswer@@
Vorstand
decrease
cans
Pilot@@
Eleganz
genz
socially
latein@@
frische
silent
Arbeitslosen@@
jn
provi@@
laimed
parall@@
RE
Direkt
ärm@@
beding@@
trieb
Zeitungen
mache
capit@@
schü@@
Environmental
beantragt
Mechan@@
encomp@@
Sicherheits-
breeding
Suchen
Minderheiten@@
Stefan
kämpft
MIN@@
Verpackung
Flach@@
ansä@@
Sän@@
Räumen
preisen
territori@@
schaftlich
gradual
brie@@
athon
exam@@
judges
Auth@@
Basis@@
verteilen
Kost@@
wishing
jar@@
Gur@@
1.2
annually
Florida
ventionen
on-site
Geschen@@
ismo
befür@@
mic
benutzer@@
setzten
Fristen
Vall@@
His@@
persönlicher
ppy
cover@@
Gefan@@
ह@@
gical
Co.
last@@
PA@@
ktiert
Nahrungsmittel
clinical
PPE-DE-Fraktion
Johannes
Large
oom
gleichzei@@
arises
ка@@
inspiri@@
corri@@
reveal
walt
dänischen
giant
ark
enco@@
Griff
beeinträchtigen
Grafik@@
tten@@
Millenni@@
TER
Vec@@
placement
Hun@@
holung
.....
С
Indikatoren
vente
Entschei@@
Shop@@
Geo@@
furnishings
aspe@@
Kosme@@
abstained
Doppelbett
pflan@@
OL
terly
interference
Kompromisse
dio
disciplinary
preises
gelände
Dör@@
moralische
Frontex
tling
Sofern
technically
BIL@@
Bern
Nobel
Chechnya
healing
ppt
Entfer@@
vernünftigen
ù
Klick
Epo@@
gerer
auftritt
Albert
Reden
igu@@
Aller@@
retri@@
Downlo@@
Gletsch@@
deplo@@
akten
Nachbarschaftspolitik
ellers
bicycle
keiten
Gesetzen
ż@@
banken
jor@@
ummer
stärke
leiste
kompetenz
MT@@
Demokratien
das@@
partement
op-@@
therapeu@@
scape
Classi@@
supran@@
incomes
stahl
emis@@
adverse
Nachteil
Nag@@
Operationen
iz
imperative
Infrastrukturen
Som@@
Foren
packen
Teilnehmern
ли@@
ot-@@
chtige
männ@@
büh@@
Long
Bluetooth
authori@@
customized
aal
licensed
big@@
criminals
globe
Konstru@@
Kil@@
Bangkok
strecke
correspon@@
zuverlässige
Treib@@
Sett@@
installi@@
Oracle
kr@@
brun@@
Internetseiten
gesetzlich
Repar@@
Alkohol
Mozilla
Euror@@
aktiv@@
Especially
affir@@
dringen
Geburt
crats
distributors
shell
beam@@
städtischen
Spielern
Kondi@@
touristischen
befreien
Untern@@
nachzudenken
beside
Generalsekretär
Klim@@
vorhaben
anzugehen
Railway
veränder@@
TW@@
Schlo@@
asts
mild
gather
Busse
ckte
ECHO
frühere
G20
sevent@@
figh@@
loan
assador
Unless
compan@@
utter
Balance
grid
koordinieren
Sequ@@
etings
sensi@@
Gleichheit
complaint
Athens
Forst@@
heres
Währungen
painted
beweist
Finanz-
vide@@
tta
knowled@@
Pharma@@
accommodations
carriers
Sortiment
Erika
Souven@@
gesetzliche
umpen
meint
volumen
repression
educ@@
Diktatur
Spra@@
Säule
Gemü@@
attempting
refra@@
Augenmerk
Block
kü@@
terrain
reiten
Any@@
Little
In-@@
thaf@@
hütung
ASA
criterion
Romanian
schreck@@
origins
unzureich@@
hearts
grundlage
civilians
NOT
höchst@@
18.@@
gebor@@
Signale
frau
Upon
maßgeschnei@@
energie@@
couples
revolutionary
letztes
samples
Stil@@
zeug@@
resolving
bün@@
14.@@
optimieren
metro@@
unkt
stra
medizin@@
Aufsicht
bahnhof
yle
eron
H.
vorausgesetzt
Statute
discretion
City@@
Statut
luft@@
Anreiz
Verbrauch
vigil@@
feier@@
Vulkan@@
überflü@@
boys
präz@@
σ@@
Criminal
Lob@@
ßes
amin
länge
surgery
Harry
Pom@@
usa
Eck@@
Duis@@
modelle
nia
schien
Minder@@
compens@@
RT@@
Bün@@
Exek@@
keits@@
unvermei@@
tible
ungsh@@
gelag@@
exclude
bedient
immerhin
yp
harmonised
Lud@@
etzt
erreichten
Übertrag@@
bemerkt
Users
Fest
Publik@@
Orientierung
Punta
Redebei@@
mount
ALL
Etik@@
regelmäßige
Works
tragenen
mangelnde
effizi@@
Termine
wachen
HI@@
Kub@@
abteilung
Sicht@@
fikationen
träglich
Jahrhunderte
chamber
geordneten
vacuum
Kari@@
Inflations@@
Local
XX@@
determining
communist
episode
regu@@
ausgezeichn@@
besichtigen
Bruder
kapital
familie
Swoboda
totalit@@
Religi@@
ova
passive
attach
sincere
Proc@@
Entschädigung
ausgeübt
rigorous
spür@@
sus@@
Persön@@
nearest
Säu@@
öhnung
upload
nutzung
supporters
Gesamtheit
Unternehmer@@
Kleidung
personality
queries
Written
Smart
schaft@@
Linux-@@
Officer
Song
o.
spru@@
Konver@@
vorbereiten
SM
äler
Sternen@@
gun@@
promp@@
dauerhaften
figu@@
einlad@@
qu
beruf@@
hinzuzufügen
autonomous
perception
coins
lins
ft-@@
Gesetz@@
intuitive
gig
zungen
deter
uty
schwerwie@@
Transpar@@
automatischen
solu@@
Passagiere
end-@@
was@@
shofs
Lust
democracies
Einfluß
tled
lichte
Auftraggeber
Chat
Dom
Ramblas
bollah
rts
toll
Solidaritäts@@
distinct
RS
ernannt
142
abgestimm@@
Solidarity
Früchte
Dafürhalten
examining
margin
berühmt
schicht
Messenger
tera
downloads
engagieren
locally
accessed
ferry
Vig@@
Solar
Syri@@
comfortably
ttern
Paradies
Terrace
brachten
excuse
beschä@@
-European
verschul@@
bezogenen
Insofern
thwest
element@@
orange
Autonomie
starb
tent
zel
herein
3.5
einsetzt
boar@@
Nichtregierungsorganisationen
acht@@
englische
reciproc@@
ño
Vergü@@
wy@@
circum@@
herausra@@
pillars
Jack
dramati@@
cigare@@
ffe@@
verträge
rounds
tras
guitar
genetically
aki
Fres@@
Aufgaben@@
Meister
nische
för@@
NT
indirectly
ceremony
ön
128
zunehmen@@
investitionen
gie
artigen
pedia
restrictive
dryer
Mé@@
ometer
renovierte
Crus@@
Einbindung
begab
Gab@@
erzählt
Mira@@
tom
photograph@@
fungs@@
modular
doz@@
chip
bekräftigen
Völkern
Möbel
strom
erkennbar
clas@@
Newspapers
Vot@@
cere@@
envisaged
ude
Nachbarschaft
Bulgarian
römischen
WHO
thou@@
appearing
gesendet
audiovisu@@
perfe@@
plu@@
Studies
findung
has@@
echter
lifts
Naturkatastrophen
Gä@@
invoice
instant
Cru@@
beratung
embry@@
Quartal
nahen
Erneuerung
reactions
Maßstab
pine
theoretical
Zeile
Gläub@@
angeführt
Banglades@@
strikes
divisions
andau@@
Anpassungen
oph@@
IGC
gen-@@
geholt
procedural
mord@@
ziehung
zugreifen
Zealand
quick@@
Ganze
pf
SOL@@
taire
ás
ños
identifizieren
ò@@
tionelle
imagin@@
protective
Hongkong
formerly
corporations
koordiniert
delle
Mitarbeiter@@
dis
yield
tox@@
cular
Campingplatz
Dür@@
scrutiny
Musiker
dynamischen
urs@@
off-@@
Vegas
anci@@
Dienstes
workplace
quo
protests
drit@@
vorzubereiten
Klo@@
MM@@
Minist@@
literally
Lobby@@
inson
text@@
securing
Quer@@
bücher
seitdem
Protok@@
Arri@@
P.
Galax@@
cup
Megapi@@
Rate
keyboard
nette
ition
billigen
german
Beförderung
kov@@
segments
terra@@
drän@@
zusammenzu@@
hosti@@
patch
Freedom
headed
verkauf@@
folk
behindert
dierung
steigert
Ja@@
enberg
sowje@@
inierten
fortzusetzen
zir@@
nai@@
Turk@@
Gefähr@@
cils
CIA
Downloads
Tie@@
Sehen
World@@
organs
Laman@@
kriti@@
prejudi@@
Spann@@
Schottland
fehler
wid@@
Controller
32@@
Willi@@
Umgeb@@
echt
Loch
bewundern
convincing
Kei@@
visas
confi@@
webe
schwäch@@
aving
genutz@@
स@@
penet@@
Gültigkeit
Preis-Leistungs@@
Netzwerke
disastrous
legisl@@
erfassen
arme
PSE-Fraktion
buttons
trages
Erstellen
downlo@@
compromises
Commander
congratulating
concludes
Angeboten
äußer@@
latt
Rechtssicherheit
validity
Kameras
DNA
Brand
Keram@@
jed@@
enhancing
foster
interventions
ageing
altitude
Stellungnahmen
Ansprechpartner
endo@@
Disabled
beglückwünsche
ý@@
indire@@
cathedral
hunting
static
ORE
architekt@@
geschmackvoll
arena
formally
uner
execute
Memory
wet@@
Schnit@@
credits
lassen@@
Lauf
gster
erschüt@@
Night
schaftlicher
investig@@
ologen
Kolle@@
decor
geschlossene
Beschaff@@
länen
sacri@@
ländischen
Cardassi@@
portion
hir
Kompromiss@@
Andro@@
vielfach
Rohstoff@@
Resultat
raums
dev
Chancellor
WiFi
formali@@
monopoly
accommod@@
uniqu@@
1972
Direktor
mitglied
SPA
pedestrian
Quadrat@@
Hear@@
festhalten
Production
Ungleichheit
categ@@
note@@
routine
Hoffnungen
double-@@
Whilst
zügen
productions
sorts
Gibraltar
variables
Kloster
Herstellern
abzulehnen
admitted
dered
pushed
geschütz@@
unum@@
ave
Breite
zivilen
Heu@@
ersuchen
wertvollen
ALL@@
py@@
blicke
Solarium
Vorbe@@
cotton
modus
Mensch@@
Modell@@
Mitgliedsstaaten
Haushaltsjahr
Looking
Band@@
zza
fier
FS@@
Frau@@
ever-@@
Inanspruchnahme
Erschein@@
insert
stad@@
onisten
erfahrenen
letter@@
Enter
strahlung
ventions@@
bedürfen
Demokratisierung
6th
adet
preference
Schalt@@
ehl
consolidated
Vorbehalte
Angebot@@
Begeisterung
berau@@
fed
muslim@@
mobilen
depic@@
missi@@
Obst
tice
Ostsee
Folge@@
Schauspiel@@
cling
auto
galleries
vian
perceived
unilateral
partner@@
certificates
behei@@
esk@@
Petitions
Latvia
gesenkt
Kalender
5000
anch@@
Formel
anti
gebnisse
Komplexität
tat@@
neo-@@
dichte
iga
tonight
Milch
Piet@@
versi@@
train@@
overwhelming
Flüchtlings@@
apel
morali@@
Volkswagen
urop@@
exclu@@
fangs@@
Domain
Entschließungsanträge
Navigation
bör@@
Gegebenheiten
Rücken
Again
arly
innocent
Os@@
verify
abandon
Ganzen
verschlüssel@@
Mario
intimate
optionen
hoff@@
Erkrankungen
gerte
rungen
ro-@@
grenzt
erkenn@@
diversen
exi@@
Event@@
Trav@@
ar-@@
Italiens
philosoph@@
carri@@
enzi@@
roten
Cash
doppel@@
oll
wanting
Catholic
Gegenwärtig
Sozialpolitik
nisch
preservation
Zentralbanken
modernsten
Jobs
worried
lity
Canal
dramatically
außergewöhnlichen
steigende
rounded
hip
го
Fahrzeugen
Ukrainian
Dutz@@
windigkeits@@
stabilen
serie
inviting
anzen
Später
lingu@@
öst@@
riert
ounced
burning
non-governmental
sche@@
führend
vities
tschechischen
sonni@@
beleb@@
norm@@
sib@@
gins
bearbeitung
Learn
alternativen
Beauty
wished
agra@@
bildungen
erung@@
assessed
attraktive
Democracy
schätzt
aufweist
Bundesrepublik
niedrige
reti@@
Zap@@
standard@@
tles
arest
listet
Klang@@
vene@@
kopieren
Höhepunkt
dürften
chno@@
Schluß
Festivals
ausmachen
IF
stimulus
schätzung
1.1
sequence
transported
westliche
serklärung
Gene@@
aran
packt
HA@@
Hoheits@@
grundlegend
uno
Kanäle
Streitkräfte
refusal
läufi@@
geschützten
transatlantischen
Erwerb
alog
OC@@
Redezeit
Gebi@@
Son
gehand@@
Pots@@
sympathy
gemeinschaftliche
Anyone
Potential
fundi@@
aro
dynamische
dicht
DS9
geräumigen
Fäl@@
reiches
baute
studying
tank
Konsumenten
immen@@
mensch@@
unternehmer@@
dek@@
Forscher
Nichts
tery
chips
safeguarding
Persönlichkeiten
minibar
unanimity
ästhe@@
ausgewählte
surfaces
Creative
Ausstellungs@@
09.@@
annehmbar
Smart@@
Störungen
Gesundheitswesen
istan
otive
skri@@
Kampf@@
Entwicklungspolitik
Veter@@
scripts
SQL-@@
deployment
ät@@
readers
unterstrichen
laufende
Partnerschafts@@
stairs
unweit
Zah@@
Depending
Koso@@
Against
Neither
sachen
24.@@
Raf@@
dahingehend
mitt@@
Canadian
jan@@
Straß@@
gmati@@
Biom@@
Höhen@@
lieferung
missible
far-reaching
thinks
accompanying
Richtigkeit
UK@@
energies
Zutaten
verlust
rahmens
DO
Dr
ignano
exploited
20.@@
Häufi@@
benachrichtigt
buyer
wiederhole
zügi@@
profession
Gesetzgebungs@@
verlängert
ank@@
verbindliche
Linken
gründe
basierend
statute
bugs
beobachtet
Flüchtlingen
council
enten@@
witn@@
night@@
gress
bekämpft
amtierende
vibrant
Jacuzzi
lichere
RF@@
Help
Besetzung
Zukunfts@@
vertical
unified
artic@@
friend@@
Kapitalismus
Krimin@@
tzen
escal@@
ρ@@
Nachfolger
IND
consultations
österreichische
50-@@
ply
nings
ité
zn@@
abzuschließen
Zivilisation
Wu@@
Pent@@
paint
Entdeckung
ausgestellt
ache
Kä@@
Political
fehl
vorzuschlagen
Außengrenzen
A5-00@@
dion
Kongress@@
proves
Anzeigen
estro
Stim@@
Kernenergie
Manchester
proportionate
GM
hof@@
er-
direkter
tori@@
Direk@@
classified
Zie@@
Statisti@@
Flüssi@@
baths
anism
nightlife
Germans
dimension@@
configured
serial
milli@@
begriffen
außer@@
encing
solidar@@
ruf@@
Nit@@
diesel
gemütlich
aiming
Photoshop
endeavour
Kindes
eig@@
aver@@
glas
bets
voranzutreiben
jenige
wisdom
Kurs@@
fragile
teure
Beitrittsverhandlungen
sache
Starfleet
Blizzard
gul@@
Ferr@@
ausgebil@@
endorsed
Recently
Blau@@
Dich@@
gresses
Kast@@
gesu@@
spark@@
Meinungs@@
austerity
ox@@
fünfzehn
Hunderte
tei
amtierenden
Bavaria
fläch@@
lifting
ego
EZ@@
costly
vorberei@@
Interpretation
versetzen
Gewer@@
worauf
Geschäftsführer
Publikationen
ammern
Hollywood
Hans@@
Porsche
Buchstaben
produc@@
verweist
landing
े
anyway
bury
memories
spiri@@
vollkomm@@
beachtet
smallest
pull
safer
Ferienhaus
drew
wunderbaren
documented
pricing
abgeschafft
mittel-
Lady
zufriedenstell@@
Lissabon-@@
Zinssätze
Domin@@
deciding
perfec@@
umping
Along
wash@@
probe
Landwirten
Bewegungs@@
Phan@@
zeile
gescho@@
micro-@@
Gent@@
expliz@@
mac@@
zion@@
Argent@@
legislativen
inet
Nul@@
Back
conce@@
chart
22@@
1980s
Budd@@
guest@@
stitu@@
winkel
berry
Norm
tiers
bewahr@@
gewöhnliche
limiting
ateway
dorthin
pending
anne@@
Glücks@@
Sw@@
confirms
author@@
Autorität
popularity
teres
colo@@
Balkan@@
bottle
beherbergt
elung
Öster@@
Impf@@
lush
Beispielsweise
Congo
broadcast
medic@@
Rohr@@
int@@
Word@@
Sydney
rent@@
Weiter
Zucker
Alex@@
~
oberfläche
haz@@
7th
Magazine
Imple@@
Pakist@@
freiwillig
behold
neut@@
Valu@@
KE@@
Gutes
demonstrations
Moldau
brilliant
Medina
Strafgericht@@
abgel@@
gefahren
schwe@@
spac@@
relie@@
writers
vereinbaren
Toleranz
Dal@@
detention
developer
ergy
diam@@
Zentrums
Durchführungs@@
Colombia
Speed
racht
ardo
Immunität
gemon@@
Standorten
Still
Cul@@
estic
transfer@@
halben
modification
ausgeliefert
indischen
gigan@@
rumän@@
Produc@@
Stars
Harmon@@
improves
tseite
massiven
bereitgestellten
trans-European
Investi@@
Kamer@@
Wanderungen
verschärft
Alb@@
750
bestraft
ront
acu@@
punishment
besteh@@
Voraus@@
six@@
english
ext
Artikeln
lagen@@
steine
counted
torial
aktionen
gessen
abschluss
admire
princip@@
omo
Dunk@@
begrenzen
cho
blockiert
TION
wertet
indications
Artikels
praise
Hilton
dead@@
textiles
Infrastruktur@@
Kanz@@
ont@@
path@@
abschließen
forderungen
adjacent
Clients
grafischen
ausgenommen
geographi@@
Tastat@@
gebucht
Etage
UP@@
versprochen
festgehalten
Akademie
fizierten
transp@@
bedauer@@
Zustellbetten
deadlines
emphasize
Unterricht
Rollen
об@@
markiert
adi
Wandern
gui@@
foo@@
ا@@
Diejenigen
einzuleiten
ordering
stufe
correction
SIM@@
ISA
ruins
thereof
Prince
portable
positives
classification
irgendeine
KL@@
Turni@@
Universi@@
Alkohol@@
faktoren
counter-@@
hec@@
Seattle
Bolkestein
obstacle
Ziels
Giovanni
Rose
uk
horn
Oc@@
Ära
listing
snacks
Kreatur
beeindruck@@
essor
Anwendungsbereich
sweise
introduces
Pay@@
angemessener
seller
diente
Konvents
BB@@
4-0@@
europas
Olympischen
Gepäck
Königreichs
road@@
gemachten
Verpackungs@@
stechnologien
responding
situationen
geisti@@
Beträge
verlu@@
Down@@
alpha@@
lend
Palast
inwieweit
iranischen
critique
ermittelt
settle
noble
Aufklärung
Windows-@@
elas@@
legend@@
verordnung
gency
kunft@@
aufhören
Eas@@
Verwen@@
rear
construct
schwach
trials
there@@
23.@@
posing
cco
BE
europa@@
kreative
visibility
scri@@
definitions
ACE
limitation
Zuliefer@@
Monaco
guilty
standardis@@
vereinbarung
Twitter
ierter
sentation
größ@@
Akzeptanz
tanks
configu@@
surance
advisory
ausgeben
sends
honest@@
Unterstütz@@
geschnitten
anto
bestanden
Gewährung
zte
gratuliere
anspruchsvolle
cream
loads
Guatemala
tout
sämtlicher
herrschenden
Datent@@
Weltkrieg@@
ergi@@
wis
ystems
dish
Gegenden
Wissenschaft@@
matic
Benz@@
38@@
rors
immunity
übertrag@@
market@@
ausreichen
witnessed
Gedanke
Strecken
ietet
Div@@
kunfts@@
audiovisual
rump@@
lun@@
delegations
Cards
Werken
wirtschaf@@
Assozi@@
künften
volumes
meaningful
Geldpolitik
Freizeit
Scandin@@
hony
Nap@@
ao@@
profitiert
traditionally
tasty
anton
zenten
commands
bewäl@@
subjec@@
Virtual
bewegungen
annten
abhängen
completing
Club@@
morgens
durchschnittliche
Fau@@
Gleichwohl
diet
Lizenzen
multilateralen
Gift
paragraphs
Archit@@
ukra@@
sprin@@
rums
Bedürf@@
gefangen
Eurocopter
ausgeprä@@
rachten
2.2
region@@
distinguish
Organis@@
aments
courtyard
Aufnahme@@
Lieblings@@
pflegen
identifying
schlimmsten
azione
Rechen@@
advan@@
oi
psychological
sy
diesbezüglichen
complementary
ausgerüstet
Charakter@@
attraktiven
Rica
stuhl
signifikan@@
Hydro@@
Szene
Afrikas
boutique
Priv@@
sozial
wandeln
medicinal
kümmert
painful
tariff
Bä@@
apped
modernisation
Schließung
Viel
gasse
Inzwischen
endeav@@
kapazität
trinken
Bestimm@@
Guinea
henden
controll@@
Präsent@@
Agri@@
TRA@@
deckung
rh@@
Ple@@
unmittelbare
illness
bund@@
insur@@
bunal
kommunizieren
transpar@@
Europäisches
Hindernis
Therapie
salle
ticul@@
Kling@@
ART
Fusion
Pres@@
fulfil@@
Promenade
Trainings@@
Major
FREE
erho@@
worlds
CO2-Emissionen
dark@@
serb@@
Depression
Nas@@
remedy
Romanti@@
screen@@
unic@@
short-@@
eive
igration
omas
Sammel@@
†
disch@@
westen
invasion
neutrali@@
reluc@@
konkre@@
mare
Imperi@@
Gehir@@
Etagen
ausgewogen
anwendungen
optimiert
Masse
न@@
legacy
mood
Oper
consi@@
Vorsicht
frames
Schwerpunkte
virtuellen
Clau@@
einrichtung
Bedrohungen
lv@@
periodi@@
mär@@
ā@@
tendency
Fülle
Auslands@@
quoten
dop@@
omen
Tagungen
chair@@
FP@@
diplomatischen
Zwischenzeit
Canary
Images
Sustain@@
Sahara
ehr
anzusehen
Nutzern
inland
opol@@
protot@@
Acti@@
gle
Daraus
modifications
Price
wehr
farm@@
siedlung
intelligente
toren
astronom@@
folgte
Übermittlung
spreading
Monum@@
hair@@
intent
terie
GEN
irrespective
priced
statt@@
Expan@@
Mathemati@@
Zeitalter
timm@@
Verhinderung
vri@@
Designs
wurf
liv@@
Shutt@@
Delta
definitive
eventuelle
efs
Updat@@
desc@@
baggage
sele@@
Jahreszeit
fabulous
vergleichbar
wheels
Americ@@
reihe
repar@@
Europe@@
fassten
sleeping
197@@
problematic
ried
favor
Cruz
Monats
dioxide
Whatever
Visum@@
assen@@
Warsaw
distinctive
Crist@@
betreut
10.000
Heiz@@
Trä@@
Auflagen
consolidate
laufend
Elektriz@@
très
smoke
exotic
Katastrophen@@
suits
fän@@
en-suite
Las@@
dle
Kyoto-@@
stants
bekanntlich
mittelalterlichen
Turm
Benutzern@@
geräumige
fasc@@
Championship
druckt
iell
ausgehend
wirksamer
ausdrück@@
samt
Meinungsäußerung
reservieren
tum@@
Schritten
FT
Schwach@@
seas
Folgendes
prerequisite
Endes
agu@@
stent
Kriterium
Multi-@@
Fam@@
opping
Darauf
regelungen
slide
anien
Davon
ake
Oliver
zurückkommen
schriftlichen
setzungs@@
herrschaft
Spiels
Dry
Chris
compet@@
Schätzungen
undi
wirksam@@
stream@@
gambling
coastline
gerlich
Mitglie@@
Ansprüchen
stas@@
OM
gezahlt
blocking
Johann
Malaga
Bestrebungen
weal@@
Durchschnit@@
Holding
wholes@@
S-B@@
affen
pflanzen
Scrip@@
recru@@
Beleu@@
uta
Befu@@
abzugeben
yiel@@
birthday
Vertrieb@@
unglaublich
aboard
Sozialisten
exe
kontra@@
Trin@@
lling
Protot@@
ultra-@@
cattle
evaluated
Sitzungsperiode
administrator
geschenkt
Dienststellen
stically
Annex
μ@@
stück@@
Kommunikation@@
ICH
gestrichen
kat
Tuscany
Jordan
Folter
Kok@@
tied
Zeitschrift
reimbur@@
verhandelt
Ticket@@
disabilities
beginn
disappear
Applic@@
af
не@@
Hob@@
scheinbar
Verbin@@
lings
sere
24-hour
ith
erholen
Erdbeben
casting
defin@@
Anschließend
Lange
aufrufen
persu@@
jazz
dairy
Cohesion
verwandeln
Herzlich
pushing
Subje@@
Formate
dität
genommenen
uit@@
sth@@
concep@@
Ih@@
-Sterne-@@
Active
Meas@@
Check-@@
broadcasting
clauses
protects
selts@@
etto
reaffir@@
Pfad
aggressi@@
home@@
ole@@
Attra@@
Behandlungen
Genauigkeit
veranstaltet
pets
LI@@
tiker
Zyper@@
emit@@
apar@@
Pazi@@
Psy@@
Posselt
Ungleichheiten
zusammengestellt
doc@@
lov@@
betragen
escap@@
Algeria
Haltestelle
detect
Hotelzimmer
effizienter@@
Wäscheservice
Chinesen
viewer
dereg@@
merken
Nachteile
ehren
Bürgerrechte
mediterran@@
Lee
themen
Hochschulen
contam@@
perfekten
damp@@
Überleben
Princ@@
flora
conducting
Häusern
Temperatur@@
Secure
Shuttle
draws
ons@@
spam
aker
contro@@
bestätigung
Files
personen
Comfort
oasis
Flächen
linder
aba
Allein
erzeugung
privater
RA
gewöhnlichen
Nordkorea
ansprüche
sichten
erweise
problemen
Brown
Erfassung
Tier
E.@@
danger@@
möglicher
wild@@
ane@@
kum@@
Konzern
nav@@
DC@@
Blei@@
grafische
leuten
1971
verdanken
in-house
х@@
ggen@@
rieben
arre@@
Zertifizierung
retained
zweit@@
onna
vermieten
beunruhi@@
enswerten
Räumlichkeiten
temporarily
hygiene
Defizit
Schlußfolgerungen
jemanden
Temp@@
metals
π@@
brea@@
card@@
fitting
Zigare@@
gebrachten
Frühstücks@@
versorgen
pots
tranquil
south-@@
renewal
tiveness
gelan@@
economical
Additional
fridge
Fan
Vermögen
thur
miner@@
cooperative
abetes
erender
beeindruckende
bürgerschaft
consu@@
einbeziehen
fizierte
Vorgang
DE@@
Hague
Arbeiter@@
erzielte
Aufpreis
durchschnit@@
Blä@@
64@@
Amat@@
Beobachtungs@@
Wissens
verbundene
vign@@
klarstellen
Want
Equipment
läufigen
enforce
Un
italien@@
dants
künstlerischen
couldn
fried
erhebt
econom@@
Jet
č
ktivitäten
bege@@
sau
passion@@
coura@@
Somalia
Ala@@
traf
feasible
energe@@
Portfolio
sparteien
ideology
stle
Sites
heimischen
exacerb@@
trächti@@
FTP
compiled
passport
Übereinkunft
Points
mma
herbei@@
surf
biologische
Beau@@
zulegen
Gestalt
irgendwann
Mercosur
confidentiality
Tempel
Wri@@
aman@@
wirst
multinational
lemma
Broschür@@
cabin
veri@@
β@@
fairer
cians
condem@@
etti
Stephen
untergebracht
geschul@@
chie@@
versprechen
Translation
Machine
continuity
gefertigt
frank@@
fluss@@
Zak@@
Tiefe
gangene
Hof@@
trendy
Orchestra
servatory
echo
dringlich
atta@@
Stabilisierung
Ds
Some@@
diplomacy
le-Distribution
turel@@
automobile
ğ@@
burn
Parking
fulfilling
Cafés
Century
amento
Schuh@@
Rettungs@@
comprehensible
geld@@
Schlacht
navi@@
Iron@@
Has@@
inch
Erweiterungen
utz
schwarz
Tok@@
funktions@@
irgendwie
zuführen
Erhebung
dei@@
Lufthansa
existi@@
2.1
erstre@@
Conci@@
safeguards
thick
Küh@@
quoted
shes
Phasen
encourages
mord
Finanzielle
Behandlungs@@
Tschetschenien
enses
wenngleich
Trock@@
responded
abschließ@@
humane
keln
edo
Instabilität
Kart@@
anzuerkennen
Versicherung
Gemeinschaftsrecht
timing
riffe
donor
stisch
optimized
einhalb
prescri@@
kultureller
menden
Croatian
höherer
evenings
tration
scand@@
Umstellung
mächtigen
model@@
ло@@
Manuel
ATE
geschnit@@
lateral
stür@@
Verhaltens@@
exzellente
Ball
Lyon
households
13th
Anleitung
som
tima
shorter
enni@@
Vern@@
Guantánamo
pfei@@
Ec@@
lasten
verschi@@
Migranten
dimensional
erwarte
Funktionsweise
eigent@@
Layout
Kongo
Borg
zuständige
Reichweite
ueber
mau@@
soren
stellbar
belastet
confidential
assessing
Stern@@
änen
Schlacht@@
Script
überwälti@@
simulation
Herzegovina
Mitgliedsländer
even@@
lieferungen
UT
Leb@@
Industriepolitik
congress
flexiblen
machung
Felsen
stadium
erning
Secretary-General
Eingabe
zugang
resear@@
Heidelberg
unge
Drucker
Fischereiabkommen
stock@@
SilverFast
chet
Marx
vertrag@@
amendo
sh-@@
10th
andin@@
attacked
Christi@@
settlements
Instrument@@
incidents
femin@@
azz@@
Aufstieg
ateur
Anreis@@
oro
gathering
formuli@@
Para@@
holt
Ergän@@
forestry
Netto@@
Model
impressed
eping
firma
ographie
Gom@@
Begrenzung
Inspi@@
bestehend
aston@@
Verwand@@
Fundament
port-@@
St.@@
Boutiqu@@
opou@@
Änderungs@@
Fiel@@
schlag@@
rassi@@
geber@@
akadem@@
definite
lierung
Swe@@
sided
Bek@@
experiment
Mön@@
proch@@
BSD
CV@@
erhielten
Konfigurations@@
stetig
drängt
Mannschaft
locked
Zusammenfassung
Six@@
valued
Verw@@
Metrop@@
Unit
griffs@@
vollsten
propaganda
Pod@@
einrichten
tierenden
dak
Nachrichten@@
plot
erup@@
Begleitung
Kohäsion
architect
Bandbreite
Koch@@
roler
DEN@@
ungsphase
fortsch@@
earthquake
suppor@@
Poettering
nachfolgenden
Bike
unkten
German@@
problematisch
Jen@@
organising
schlicht
Fortunately
Graphi@@
zuhalten
Modellen
Bologna
ranks
ffern
uts
ttaus@@
Entdeck@@
platt@@
opt
zug@@
Entscheidungsträger
batteries
recur@@
sade
schlim@@
IK
satelli@@
ergänz@@
righ@@
schweigen
zern
ю@@
MB@@
marble
imbalances
übertragung
soll@@
dropped
Minim@@
municipality
kritisieren
bition
verknü@@
auseln
veau
prozessen
Dolomites
schal@@
Mini
behindern
agn@@
gewaltige
heimer
Mittagessen
sung
Vertrau@@
llo
Bele@@
Objective
etwa@@
Import
pir@@
iors
cane
antique
Func@@
debts
Verbündeten
Continental
Hygi@@
zeh@@
Fotografie
Gesprä@@
Finanzminister
Steel
YouTube
Evalu@@
exakt
Aparthotel
NA
Button
Legi@@
toxic
Eich@@
Krem@@
defines
Logistik
purchases
Tepp@@
за@@
tritts
Gewerk@@
Barro@@
park@@
Cancún
übernahm
Erziehung
vorgesehene
recognises
andel
anticipated
ratify
understandable
ure-@@
pit
erhöhte
Sv@@
bedded
wahrgenommen
LabVIEW
Minde@@
magazines
Dolomiten
toys
Tabellen
wälte
gieb@@
nahe@@
berechti@@
entre
mware
Beibehaltung
ggf.
animation
harder
Nepal
köst@@
CPU
Verlag
ssi
besuchte
Domini@@
cation
Texten
heruntergeladen
encountered
hebung
anerkannten
Terror
Griechenlands
beauftragte
widerspiegelt
Wand
linen
barrier
beh@@
grey
ny@@
preserving
veness
Konsolidierung
Hybri@@
viruses
мо@@
Economy
Finn@@
Steinberg
attentive
Mic@@
attitudes
employ
County
visten
japanische
Ausschüssen
Labor
Haut@@
Stern
komplizierten
demon@@
aph@@
unzählige
kenne
erbringen
24-@@
ligence
Datens@@
sored
einigt
kus
Auskunft
Erkenntnis
mietung
verantwortung
sprung
spreis
conservative
dex
ь
Motoren
Estland
aufhalten
captured
GA@@
gliches
Us
Wikitravel-Benutzer
Revolu@@
transi@@
versuchte
ThyssenKrupp
ump
dealer
hosted
varying
tigsten
Rohstoffe
gehalt
gebo@@
potenzial
erstklassige
macroeconomic
transform
dying
coup
Kompetenz@@
bemü@@
entary
partment
Stab@@
offer@@
aufgeführten
übergreifende
zonen
schwä@@
ethn@@
jana
α
broadly
Leon@@
asso
tigkeits@@
Chianti
Hauptziel
Nan@@
Reparatur
floods
enemies
seed
Shops
spati@@
forder@@
κ@@
Workshop
merchan@@
Vide@@
getre@@
Gemeinschaft@@
husband
Darlehen
Klaren
WE
klick
befreit
trug
Reisenden
Screen@@
ünsti@@
ktem
Montreal
Skand@@
45@@
ITY
ancies
Management@@
Machen
measurements
streiten
Misch@@
YORK
Engine@@
eso
eno
Info
unüber@@
.-
Castro
midst
oming
esenen
avian
ranking
Maus
aven
Cash@@
geeinigt
revol@@
Arbeitszeit
qualification
vereinbar
cons
endums
Welle
haber
wins
Unterbrech@@
Wolf
amoun@@
medien
experiments
Police
closest
limm@@
N-@@
aufkommen
Beschäf@@
sfer
Rechtsrahmen
activists
Organ
boy@@
aked
Bestände
kost@@
.NET
onian
Plattformen
stungen
Offic@@
sic
Wollen
Mercure
verläuft
israelische
offizi@@
geheim@@
PVC
Pisa
Militär
maßgeblich
thotel
ow@@
Hinzu
demselben
Wartungs@@
wohnt
debatte
transnational
need@@
verkörper@@
vin
Verschlechterung
detected
tigste
10.00
mé@@
erzählen
kostenfreien
2050
wood@@
nier
auswahl
Konvergenz
privilegi@@
ereien
bie
ASEAN
Sey@@
komplizierte
prison@@
imagination
potenziellen
korrigiert
Malware
partnern
crimin@@
organisms
Mix
Prüfungen
Wohl
TEN
senses
coating
Kamin
CD-ROM
ces@@
hardt
christlichen
warrant
geschicht@@
westlich
refreshing
rocks
holz
horiz@@
U.@@
Leiden
privileges
Far
wünsch@@
verursachten
verlängern
warran@@
Vollständigkeit
Erwachsenen
Korrektur
tops
Sozialpartner
Ministerpräsidenten
diagnosis
Baden
stationen
inspections
Anleger
linear
ld@@
dossier
bik
terten
zwecken
Schwi@@
timent
Astrium
abor@@
schmer@@
Medium
Spock
numer@@
Zusagen
ott
Hochschule
Salon
versorgt
atar
gence
schrei@@
gemeint
Klassen
Blü@@
Mineral@@
Gebäudes
solarium
definitiv
extremis@@
Schnee
aufrechtzuerhalten
random
launching
Volk@@
Ersten
Reno@@
tot
vorzugehen
Harmonie
journalist
cel
accessibility
denkbar
grass
promin@@
hielten
ret
versu@@
formity
modul@@
Kath@@
Berechn@@
Cardiff
Aar@@
Lab
én
Fou@@
genetisch
Qui@@
Obst@@
slowak@@
gelegentlich
Tauchen
stituted
gängig
voltage
zurufen
ernde
Öff@@
rewar@@
logan
pressures
riften
weakness
mah@@
Wh@@
initiate
NH
Associ@@
gnü@@
Spannung
ICA
begeben
Franzosen
Cleaning
Gremien
Norwe@@
Impul@@
discipl@@
Komplex
Base
Jord@@
ermög@@
ckness
Upper
pository
ichtungs@@
zuverlässi@@
stres@@
retention
Wärme
Ali
tim
Nordirland
Catalunya
dachten
Note@@
splan@@
folgedessen
handi@@
help@@
Á@@
Me
sätzlich
ubs
fert
Geschlech@@
aults
verwandelt
entnehmen
Neut@@
Oster@@
oked
widerspiegeln
kne@@
tien
Oran@@
Regierung@@
bold
Müt@@
Alz@@
bedaure
entsprechender
eks
demnächst
juristischen
kom
adar
stabil
anschauen
ula
Herstell@@
IRC
liebt
Erwäh@@
Subsidiaritätsprinzip
v.@@
our-@@
griffs
semin@@
aufgeben
Gothic
widmet
Periode
Mozart
Südtirol
trace
Core
Wagen
1930
CMS
commodity
Einsparungen
mutz@@
enna
gelassen@@
Konferenz-
intu@@
aufnahmen
reserv@@
statutory
Property
particip@@
Seel@@
kking
plung
lack@@
Diversi@@
competitions
unen
Harv@@
Alli@@
Quite
Ursprün@@
heav@@
fastest
conditioned
Secre@@
Spiegel
backup
Doctor
Franç@@
Slovak
eb
Ermitt@@
Fahrzeu@@
Amerikan@@
sky@@
PT@@
disc
Appell
stretch
transparente
verbrauch
parent
Explo@@
Überwindung
gewalt@@
Soft@@
Fahrrad
voir
mittelständi@@
edly
Messen
Birma
Upgrade
beugen
isons
stellvertre@@
Design-@@
esthouse
Cambo@@
22.@@
bend
e.
Vati@@
scan
respec@@
Monitor
lov
manually
adop@@
verwendete
14th
artikel
Pakt
anding
Seminare
inappropriate
bilaterale
Nic@@
Lamp@@
tagung
entfernten
arbeitenden
Lig@@
Emer@@
Competition
vegetation
Sicherstellung
ström
recreation
enzo
withdrawn
Aussehen
priori@@
einheimischen
eggs
Napole@@
Handhabung
successes
.jpg
Preises
Thessaloniki
Sandstrand
continu@@
oberste
Fuss@@
dose
Tragen
Map
Jahrestag
Technologie@@
G8
ograph@@
vorherseh@@
Klassen@@
Grie@@
Kontinents
Iz@@
Vö@@
ernity
Dres@@
Warnung
collecting
Wiederein@@
zar@@
topical
nee@@
hoping
disku@@
shut
long@@
verteidigt
unterschiedlichsten
pursuit
katho@@
nder
spir@@
kehrungen
überdenken
Rie@@
Geor@@
grain
öser
deutsch
Spekul@@
Ehe@@
educated
tücher
eiro
ida
Ergeb@@
liner
convey
fahrt@@
weiterentwickelt
Lande
Arbeitsplat@@
gee
beheben
Ign@@
neighb@@
Inc.
wöch@@
Temple
untersagt
dum@@
steil@@
Inneren
acou@@
Zahl@@
1.000
Flor@@
inas
plo@@
Fotografi@@
Mär@@
Zweifel@@
screens
Below
Moz@@
bow@@
Allgemein@@
ritten
Nazi
Geschäftsreisende
prises
Donn@@
foodstuffs
energi@@
Laundry
Exempl@@
fu
Wunder@@
territorialen
slight
schiff@@
Bibliotheken
disappeared
Terrorismus@@
weaknesses
Cape
Mut@@
Bemühen
attending
QuarkXPress
transl@@
strukturellen
dirty
beauftragt
beloh@@
griff@@
sp
Tschech@@
definierten
speisen
Symb@@
Scottish
chtest
installer
Viren
stresses
Ecu@@
beschleunigt
eliminating
Krank@@
rasse
Proven@@
relevance
Dame
injury
hervorzuheben
quiry
Dekor@@
enfor@@
Unser@@
vernünf@@
macher
ν@@
erbe
galt
stellern
Stoffen
café
sortium
usamment@@
minded
affair
Verkehrsmitteln
ers@@
satis@@
genocide
liquidity
Biokraft@@
Mare
erbare
Multimedi@@
alb@@
steep
Kompromiß
günstiger
precautionary
anymore
tub
Angehörigen
sensors
live@@
Schne@@
ito
A1
Angestellten
desert
Schü@@
assungen
recti@@
agua
Gerü@@
bookings
hochrangi@@
Natura
beunruhigt
Wilhelm
sympath@@
thrown
networking
Badewanne
vot@@
Art@@
Kommissars
ussy
axis
spiegel
Gewähr
Garage
happ@@
positioned
Delegationen
indul@@
Schwächen
Viertens
Clean
einfaches
passage
motivation
stence
halle
rhetoric
grö@@
Male
pedition
¿
Konservativen
forever
101
ा
Nächte
Sisko
Mono@@
Fire
density
beihilfen
hinnehmen
concessions
verzeichnis
wet
Torre
vereinen
gentle
Al-@@
dra
deliberately
YOU
Filmen
K.
Egyptian
Strafe
geable
Asyl
ört
bedeutender
ALDE
prostitution
schreiten
gewaltigen
nutrition
extremen
Law@@
Euro-Mediterranean
Traff@@
vegetable
zufriedenheit
Angola
blauen
Profile
EI@@
apo@@
ASP
Ents@@
Questions
thirty
Nachtleben
einstellungen
Likewise
anscheinend
broadband
konzer@@
Daneben
Gardens
Garanti@@
abel
Wid@@
pretext
verläss@@
Articles
Niel@@
Standor@@
hauses
Chemikalien
bauer
Anlage@@
stered
lieu
Algerien
List@@
1,000
belebung
overseas
convi@@
coordinating
offensich@@
progressi@@
represent@@
Aufstellung
peripheral
belast@@
Fundament@@
Kriege
Ausnahme@@
san
gangen
ückt
entziehen
Palais
municipal
chio
Einerseits
Beschränkung
shame
sprachige
idylli@@
stenten
ausgegangen
outermost
Reda@@
asten
mie@@
instances
establishments
crash
buffer
geschah
berechtigte
`s
archives
versichert
Erwachsen@@
persuade
SEO
ämp@@
Museums
katastrop@@
erzeugnisse
Momente
OSCE
wearing
graben
Meilen
klo@@
äume
glicher
chtig
repräsent@@
glän@@
persecution
pension@@
osteuropäischen
Japan@@
zügig
Dokum@@
Autob@@
Gewässern
muster
umbrel@@
family-run
screening
specul@@
organizing
belastung
blich
void
formulieren
nächstes
mption
Gemäl@@
conscience
Mitbürger
vising
gewähr@@
Einleitung
yacht
wissenschaftlicher
artiges
Turin
Stay
positively
Fax-
uneingeschränkte
do-@@
03.@@
leisch
zucht
aufgegriffen
cion@@
ologies
105
Gesichtspunkt
Verzeichn@@
Ansehen
Chirac
tenden@@
Rechtsprechung
Typen
Verhaltenskodex
modernis@@
protectionism
ме@@
lifelong
auction
Modi@@
Five
dh@@
Katalo@@
state-@@
Lieferungen
Vet@@
ags
Genau@@
consec@@
DF
preci@@
Schulungen
polizei@@
BA@@
celebration
thful
Course
Pfeiler
Veranstaltungsräume
racy
nett
mitzuteilen
Zar@@
jack
schrän@@
Cypri@@
merkt
Bonus@@
bron@@
betreffende
herkömmlichen
Werkzeug@@
Wellnessbereich
Freilassung
lou
versicherungs@@
Bisch@@
laim@@
afft
ITE
Jas@@
mysteri@@
Gegen
MAS@@
Damals
cocktail
birgt
accomplished
älteste
sprechende
tura
halls
Kurdish
Löhne
malen
sidy
boot@@
handelte
laundry
verarbeiten
Einfach
Agent
anschließ@@
steu@@
cure
Samu@@
springs
ancen
steigerung
म@@
zoom
Glan@@
aufrecht
ket@@
eph@@
Berat@@
travel@@
grande
emergence
höher@@
spri@@
Davi@@
NATO-@@
deployed
populi@@
present@@
Kit
pfer@@
stainless
accompany
jour
Carl
faden
eme
gewichte
ventions
Verwenden
anta
Interventionen
arch
Unregelmäßigkeiten
speculation
dler
appelliere
Streben
eder
Volkswirtschaft
Spek@@
bay@@
ush@@
KM@@
drag
gekrön@@
Et@@
sensib@@
Rober@@
anger
gian
eingeschrän@@
democratically
Eis
sat
mounting
act@@
unternimmt
Ausgleich@@
asien
ą@@
komfort@@
xion
Gemeinschaftsebene
kub@@
socialist
Werde
Malm@@
Metal
apaz@@
spiritu@@
Filter@@
Incre@@
inion
euer@@
stly
entdeckte
poorer
Blumen
Schwanger@@
wählt
Ment@@
bester
та@@
abgedeckt
Toskana
Radisson
shortage
Check-In
intensity
hinreich@@
Ausserdem
wünschte
schär@@
influences
bestrebt
reminded
Scientific
experimental
getroffenen
gänzlich
förderungs@@
incredibly
enny
Neigh@@
Romul@@
Auszeichnung
teilnehmenden
Aufteilung
liest
inierte
varieties
zweites
repräsentiert
elektrischen
täu@@
contradiction
Near
Alle@@
Leser
Bearbeitungs@@
GMOs
reinen
gemeldet
bürgerliche
geehrter
correspond
1956
llon
grundsätz@@
orph@@
Alexand@@
ehrgeizige
Gesetzgeber
Aufbau@@
geschlossen@@
veranlassen
hne
dialo@@
irregularities
COD
angekommen
loh@@
Ausbruch
loten
tissue
Plätzen
turnover
denom@@
eventu@@
Schuld@@
ordnungen
Virtu@@
einschlägigen
Clin@@
servatives
real-time
reveals
Befürchtungen
put@@
äck@@
kaner
barely
Commer@@
Vieh@@
antwortet
setzungen
Iran@@
mill
acres
tiles
mög@@
bilität
picked
gewahrt
light@@
spective
possession
objections
Estate
verbesserten
NCC-@@
masters
itar@@
chains
flower
Inhalts@@
leck@@
accoun@@
gated
Klausel
facilitating
vertrieben
embargo
replacing
resist
geplante
roph@@
zusammenhän@@
zivi@@
mais
fred
Bah@@
rationen
anbieter
beliebige
liberty
sheep
economists
BSE-@@
agenturen
Entschul@@
Fit@@
herauszufinden
gesetze
hine
dü@@
Happ@@
überwachung
Motion
isieren
donation
kilom@@
ex-@@
pflicht
thirds
rek@@
Istri@@
Boutique
moment@@
nels
built-in
aufw@@
USE
komb@@
multitude
lässigkeit
wiederherzustellen
det@@
rechnet
EEC
LL@@
Eintritts@@
etch
nein
Rotterdam
dening
Freihandels@@
steil
upgraded
Speicherk@@
nine@@
Schauen
hion
Gad@@
infrin@@
attracted
gelte
infection
zweier
mili@@
ckey
ängen
Rhyth@@
zuvor@@
Münzen
VA
Schienen@@
11-@@
vorwiegend
king@@
vorüber@@
Genfer
directors
Ethernet
diameter
Schriften
billions
second-@@
richtete
bridges
Appar@@
Gat@@
designing
Anstatt
Gründer
Provence
Business-@@
amentos
earnings
DB@@
Enga@@
Wohlergehen
descriptions
rays
Aluminium
German-@@
Dorf@@
manipulation
moul@@
umfangreiches
Gleiche
normali@@
Almost
osity
Reisende
spektrum
ographi@@
aussieht
telefon@@
brücke
schwachen
Variablen
denz@@
etern
crop
Exporte
sanit@@
verlang@@
Flair
Politikern
ganzhei@@
mende
pse
UP
protein
verlor@@
momentum
häufigsten
mitig@@
updating
outline
ени@@
part-@@
unverändert
Klu@@
Diskussions@@
speeds
consultants
Seven
Alicante
polnische
enttäu@@
matching
ultur
Records
itement
Freund@@
Partic@@
Gefühle
rics
Care
geprä@@
hafen
alleged
Größen
Legisl@@
zyklus
Vali@@
rede
obliegt
Cadiz
Botschaften
socio-economic
She@@
eliminated
Schriftliche
Erwärmung
Hart@@
Spaniens
PayPal
sozio@@
motto
basin
fem@@
aufgeteilt
lus
assu@@
veränderten
Bayern
1957
utor
glichkeiten
Conil
Wechselkur@@
xing
Moo@@
Dalai
successor
Autovermietung
personalized
cultivation
Electronic
großzügig
ounce
mobil@@
decke
preparatory
install@@
NT@@
Di
wns
unilater@@
stärker@@
sprüche
acid
vergabe
Check@@
terte
voor
dec
schot@@
inequalities
atus
inkl
olf
Bestandteile
wachstum
voic@@
Spiegel@@
Sich@@
C.@@
partments
yen
historischer
zona
fossil
einwand@@
Profil@@
hospitals
exemption
überschritten
Verhältnis@@
Symbole
kommend
fortress
call@@
reward
shipment
Bec@@
codi@@
Herzegowina
tract
behilflich
willigen
best-@@
Maybe
Flusses
tschaft
LK@@
ested
variations
Verstöße
Bilder@@
³
izza
Persönlichkeit
mitting
disadvantaged
älen
Unfall
ccer
ле@@
Wallström
hosp@@
Heraus@@
ihrerseits
glas@@
weiß@@
gedenkt
sof@@
ти@@
factories
Fass@@
dlern
Aufstockung
Varianten
schlu@@
injection
folgend
Marra@@
Anbau
Applikation
sensiblen
kW
Sciences
bräu@@
schwar@@
alleg@@
Magazin
uries
Dauer@@
shoulder
rial
ularly
Wiederaufnahme
virtuelle
strongest
Teilnehmer@@
halbe
tilien
rote
Iber@@
verlaufen
unterrichtet
php@@
nesses
rises
bibliothe@@
teeth
Afghan
Besatzung
progno@@
atis@@
graf@@
Meeres
enab@@
Mr@@
ühlen
Funk@@
analog
obgleich
fängt
Official
häufi@@
Exist@@
Evaluierung
11.00
Berichterstattung
einräumen
lebens
strip
ic-@@
Stärken
ode
Energiet@@
Nahrung
multination@@
Arabia
privat
Genehm@@
api@@
erledigen
001
verweigert
treating
Seminar
Lettland
wag@@
Made
1900
1965
Protektionismus
abzustimmen
gängigen
Russians
ausch
einzeln
lub
folgendes
acity
predictable
prüft
ganzes
tigungen
unterstützten
strei@@
forti@@
besorgniserre@@
instruction
Simon
Nau@@
thou
atics
Camping@@
ser-@@
edt
Feedback
Belastungen
ILO
Bügel@@
Anmel@@
altogether
beau@@
Lebensbedingungen
beck
stamp@@
entscheidungen
sitzt
hinausgehen
verfü@@
bring@@
AVI
ism@@
ziehungs@@
verfassungs@@
Dün@@
115
Markus
echtes
trun@@
Streit
ähnlicher
Claude
mont
recipient
Color
Tunes
Erdgeschoss
Erzeugnissen
cham@@
Sün@@
disadvantage
deterior@@
Beantwortung
Experten@@
dul
assor@@
commissioned
cryst@@
scrat@@
protesti@@
Around
Stoff@@
proofed
guiding
organisator@@
Certainly
varies
deliveries
punkt@@
posting
Paar
Kreis@@
undering
igungs@@
Stress
traten
rand
signatures
auber@@
1.0
Vertrauens@@
Befreiung
ção
rüstung
EM-@@
commend
studierte
Flora
Lic@@
Vergabe
befürchten
fully-@@
Villen
wesent@@
generates
gage
bettzimmer
rab@@
threaten
ehemali@@
Fische
Zoo
bein@@
Verfas@@
sme@@
Kirchen@@
zwecke
Riesen@@
bond
vermei@@
orientieren
Mist@@
Konsu@@
asymm@@
Gebäu@@
europaweit
attach@@
sciences
Palm
broke
längeren
wissens@@
energy-@@
INI
geschäfte
Coff@@
tired
esto
verfasst
tackled
Größen@@
üpp@@
Cambridge
São
Cyber@@
ethnische
accountable
Eingan@@
ambots
Christop@@
mmer
baum
schrecklichen
tune
Chro@@
Cany@@
Arafat
wirtschaft@@
transform@@
vulnerability
Übersetz@@
impe@@
hten
vertrags
Venti@@
offensive
Reich@@
ă@@
streng@@
vertrauens@@
Wan@@
Erleichterung
Kohle
Kolumbien
befin@@
gaps
Quick@@
strich
ampli@@
catalog
Fahren
vio
pragmatic
zwingend
Vinc@@
tar
richtlinien
Weihnachten
ill-@@
fachen
corresponds
daraufhin
distances
lässig
Teils
begannen
Patch
asty
umfangreich@@
elimination
Oase
psycho@@
Liikanen
unglück@@
renovation
stuft
sahen
krei@@
Brüder
vorgaben
beeindruckenden
gates
cand@@
unterschied@@
erospace
phar@@
tti
attack@@
sofor@@
Wäldern
Erlaubnis
TP
land-@@
gleicht
bezir@@
refund
befindlichen
Atlantik
redund@@
zusätzlicher
operieren
Partition
Farm
avoid@@
arks
bean@@
appe
Auseinandersetzungen
architects
Corbett
CR
XL@@
Serviceleistungen
Ferrari
Exc@@
POR@@
yards
staff@@
Einwander@@
baden
Has
lebte
later@@
displaced
Nikol@@
Polo
Canc@@
GAT@@
ergie
leisch@@
lifetime
unvergleich@@
Frankfurter
wap
Erholungs@@
Stä@@
Dienstleistungsrichtlinie
Peru@@
ablen
einfluss@@
überarbeitet
Gescheh@@
Lock@@
cury
ause
persönliches
Patente
Zertifik@@
ffer@@
Reding
monastery
exercises
gefährlicher
eco-@@
ma-@@
temple
1200
derartiger
confronted
Füßen
ausschließ@@
unab@@
ritte
liance
DER@@
erledigt
finan@@
Speise@@
restlichen
konvention
fireplace
Dell
fabrics
1948
Züge
Schauspieler
rations@@
grades
delightful
gesetzgebung
fortgeschrit@@
beanspru@@
exportieren
Zufall
EOS
CNS
Richtungen
zeugt
präsent
haltungs@@
Kürzungen
empf@@
ň@@
östlich
Rücksicht
iden
Logos
läufig
incurred
ehrgeizigen
negligence
komponenten
infin@@
promptly
bene@@
symptoms
Total
ELL@@
grace
ermutigt
sidents
Chur@@
Hypothe@@
enchanting
accus@@
hill@@
unterstützte
Währungsfonds
konkreter
neuro@@
fabrik
lars
esische
Fris@@
honor
einzigartiges
zögern
shores
Süß@@
Infineon
grav@@
eses
Instanz
Isa@@
bulk
twi@@
gic
marken
abhängt
nachkommen
rag@@
Verurteilung
atin
Italia
ceas@@
metal@@
Flugzeug@@
jen@@
GL@@
reas@@
währung
seitigkeit
gesteuert
Try
Mitt@@
Liberals
college
inau@@
zün@@
gress@@
informations
livestock
Sogar
rehabilitation
gestütz@@
Erdo@@
Abfahrt
berechnen
stron@@
Konsequenz
PE@@
empfehle
siven
cks@@
oun@@
Kongre@@
fürchte
simpler
Rosa
inische
щ@@
rami@@
bevorzugen
Ostse@@
Demokratischen
Eigentums
Forschungs-
Meerblick
laptop
Nei@@
fortun@@
angehört
Auslieferung
mothers
Arn@@
Stabilitätspakt
staates
forbidden
vas
Durchbruch
emotions
Strei@@
unberühr@@
envis@@
echo@@
-Seiten
cave
liberale
lich-@@
Posten
Saudi@@
Akteuren
Urlaub@@
coin
woll@@
news@@
transeuropäischen
heiligen
dened
Prot@@
GVO
Zir@@
Tunnel
Málaga
da-@@
jeglichen
Dub@@
Mitentscheidung
freiwillige
Dien@@
compensate
AKP-Staaten
Schulung
Spiri@@
haltens
Pestizi@@
dies@@
ference
vei@@
fehlenden
läßlich
Bestreben
ologists
MEP
Liga
juice
Körpers
anspruchsvollen
rigor@@
Behauptung
actu@@
pher@@
Gestern
entino
allevi@@
103
Konz@@
Imperial
pity
Carl@@
gl.
Gastronomie
recreational
dliches
millenni@@
möge
Innenhof
sooner
mg
Ethiop@@
äter
age-@@
ärten
lindustrie
E-mail
Zusammenhalts
Walking
HER@@
own@@
Privatisierung
drawings
ф@@
YO@@
Klei@@
Vorsorge@@
komplizi@@
Klärung
decides
anmerken
repercussions
nördlich
Dienstleister
casts
Milliarde
deter@@
unterricht
HT
aspirations
blen@@
Rum@@
1966
Brief@@
VII
deinem
nachtei@@
scanner
fruit@@
collap@@
seinerzeit
Student@@
perat@@
gger
competing
umgewandelt
frozen
fisher@@
ologist
investi@@
pump
prevail
ammer
Photocopying
allet
stehend
Ausgewogenheit
entierte
ffekt
allgemein@@
Käl@@
Entsor@@
lib@@
entin
Graz
seating
itiner@@
Sozialdemokratischen
verlin@@
Liechtenstein
assemb@@
könig@@
tragene
unterzeichnen
gewöh@@
complied
ordentlich
Öffnen
vocal
Edit
rats@@
Ausdehnung
Linz
WAR@@
offenkundig
ernsten
Residenz
regulating
la-@@
endt
iten@@
Wertpapier@@
parliament@@
ernähr@@
IS-@@
gangs@@
Fotokopiereinrichtungen
Län@@
Sla@@
historisch
Jarzembowski
Baden-@@
Kino
umfassender
EWG
ägyp@@
vertiefen
Strö@@
Konsum
accurately
amos
NA@@
Amb@@
Erläu@@
Yesterday
diesjährigen
positiver
aesthetic
dine
interoper@@
Friedensprozess
Hot
Marktan@@
erous
jenseits
äuft
alar@@
gewäs@@
arious
Etiket@@
Lyn@@
abstimmung
ankommt
formulated
notify
gourmet
verification
SR@@
alisierungen
third-country
Zeitsch@@
Mec@@
meisterschaft
promotional
enshrined
EST@@
ender@@
versatile
mittelalter@@
chaos
Dolom@@
coa
schlug
rea
Verband
Informationsschalter
Betrieben
nahmen@@
soviel
seasonal
gendsten
Uganda
Energiem@@
tends
einander@@
gebil@@
Haftbe@@
dear
güter
LT@@
voraussichtlich
Impro@@
ämmen
tariffs
Eden
massiv
herbeizuführen
Salvador
spot@@
wholly
Agen@@
tings
occurring
technologien
juristische
Zuschauer
tschech@@
luxuriösen
anth@@
sphase
finger
chas@@
occasionally
ausstellung
gt@@
auszubauen
sors
jury
5.00
intern
assumption
aktuell@@
Mam@@
toff@@
substitute
hoben
Serbian
Standorte
Kohäsionsfonds
gnügen
Sech@@
specification
geordnete
Servic@@
Weitergabe
elektro@@
Starting
Expo
tism
begrüß@@
Laufzeit
ambiguous
PR
Fußgänger@@
Käse
Lärm
Fotografen
therapeutic
48@@
dener
coupled
shapes
blieben
photographer
drama
demic
wendi@@
erholsamen
verhaftet
conceived
professor
fragte
willen
Nachweis
voranzubringen
biking
Gall@@
augen@@
tlichkeit
dafri@@
Gig@@
commission@@
wle@@
Telekommunikation
Wirtschaft@@
Kuli@@
langjährigen
concer@@
hun@@
Themas
konver@@
zusammengefasst
gher
Akt
Ansonsten
verurs@@
aga@@
zzle
Spo@@
Krebs
Gewis@@
orthodo@@
Snacks
critics
conversation
reprodu@@
allgemeiner
Vorbeu@@
oul
seem@@
sno@@
stücken
credited
1962
ascript
Acrobat
geared
Democra@@
Branchen@@
Schir@@
herum@@
absoluten
sister
ANT@@
Director@@
gebern
großartigen
kontinuierliche
ld
Silver
Wunsch@@
Platform
republi@@
Miner@@
Orange
Unrecht
Ideologie
Frühling
Verpack@@
kontinuier@@
IMO
aber@@
schätze
adas
erstattet
Zagreb
ssed
Mitgliedstaates
intermedi@@
Restau@@
strecken
risiko
Krankenhaus
licences
financially
Myanmar
Pflan@@
ankommen
Audio-@@
Rücktritt
Ves@@
Fachleute
vic
ं
Authenti@@
appropriately
utable
royal
agnen
manoeu@@
blas@@
flich
Dav@@
chill
Zoll
Streitigkeiten
Unfälle
discounts
cafes
ican
Codes
Lagerung
Vormittag
encryption
process@@
applau@@
Öffent@@
Deck@@
ject
Dek@@
Fine
balls
Verknüpfung
business@@
Iceland
Australian
Buyer
cozy
profi@@
vocation
realities
sko@@
aufgegeben
vens
Richt@@
rahmen@@
angezogen
alarming
excluding
gion
liberalization
überschreiten
Meinungsfreiheit
Ou@@
thema
einnahmen
dehnen
Share
Naples
Jeden
Baby
manipul@@
MAN
Dimensionen
thy@@
bow
Spam
connects
Errungenschaften
Haushaltsausschusses
lität
stanzen
-and-@@
sixth
barri@@
konzentri@@
Commons
Zeichen@@
räte
Stück@@
Kommunismus
jahres
Koalition
biotechnology
privilege
Carmen
absta@@
240
horri@@
operativen
pause
CAD@@
bekistan
1939
fasste
staun@@
Kunsth@@
Arten@@
Hack@@
Fitnesscenter
Arctic
extre@@
Finan@@
Konzeption
pakete
Universitäts@@
Teh@@
ouren
eler@@
Glückwunsch
conven@@
Gesundheitsversorgung
stamm@@
Sounds
höchstem
Cotonou
Auswirkung
й@@
amaz@@
angem@@
Aktualität
08.@@
gepflegt
melten
issuing
containers
zh@@
Folgenab@@
essimis@@
mediterranen
Anfänger
einziger
tails
istics
solle
Integr@@
Telefonnummer
besie@@
SI
kunft
Seville
Carlo
Haushaltskontrolle
did@@
Reservierungen
foun@@
Trading
kov
attle
lical
Brot
Pilot
conception
9.00
Rhine
unternehmen@@
Bedauern
ambigu@@
öne
tap
Ausflug
Betrü@@
beurteilt
Divi@@
sebene
exceeded
Einigkeit
schwarze
initiativen
Acces@@
elligkeit
Abent@@
geist
Transfer@@
wörter
angebot@@
dable
och
ghty
Messung
Elisa@@
voy
Kampagnen
exklusi@@
elo@@
film@@
ausgeht
Zen@@
amerikan@@
Meilenst@@
alistic
Jesolo
Renten
geschaff@@
lamp@@
ferenz
rale
1961
Dubrovnik
übereinstimmen
Auftritt
Kis@@
Auswertung
etabliert
persistent
[...]
